<unk>	0
<s>	0
</s>	0
▁t	-0
▁i	-1
an	-2
▁n	-3
he	-4
▁a	-5
▁k	-6
▁b	-7
re	-8
▁w	-9
ri	-10
ra	-11
ha	-12
▁m	-13
in	-14
yo	-15
▁u	-16
is	-17
▁I	-18
on	-19
▁s	-20
ya	-21
▁c	-22
▁the	-23
ye	-24
ho	-25
ba	-26
▁g	-27
▁ku	-28
▁d	-29
ta	-30
en	-31
▁to	-32
za	-33
te	-34
▁"	-35
ga	-36
bi	-37
ko	-38
▁mu	-39
▁N	-40
his	-41
▁yo	-42
se	-43
ve	-44
ka	-45
ll	-46
▁T	-47
▁you	-48
▁ha	-49
or	-50
we	-51
ing	-52
hat	-53
wa	-54
bo	-55
▁f	-56
▁is	-57
tu	-58
▁in	-59
as	-60
▁p	-61
▁l	-62
▁o	-63
me	-64
mu	-65
ma	-66
ot	-67
ke	-68
yi	-69
gi	-70
and	-71
hi	-72
zi	-73
ge	-74
ro	-75
▁he	-76
ze	-77
ti	-78
ru	-79
wo	-80
▁be	-81
▁ko	-82
ku	-83
▁this	-84
ki	-85
▁ya	-86
▁gu	-87
le	-88
▁wi	-89
ou	-90
ar	-91
▁of	-92
▁not	-93
▁that	-94
▁do	-95
go	-96
yu	-97
bu	-98
da	-99
wi	-100
▁bi	-101
▁ba	-102
ld	-103
▁ni	-104
bwo	-105
es	-106
▁it	-107
gu	-108
id	-109
vu	-110
▁e	-111
▁we	-112
hobo	-113
▁ibi	-114
yan	-115
▁na	-116
▁re	-117
hu	-118
ow	-119
si	-120
▁The	-121
."	-122
ut	-123
▁will	-124
tabwo	-125
▁M	-126
▁H	-127
hobora	-128
th	-129
▁W	-130
▁im	-131
ed	-132
▁ne	-133
▁U	-134
ana	-135
▁wa	-136
kora	-137
▁was	-138
ce	-139
▁me	-140
▁umu	-141
▁go	-142
▁A	-143
fi	-144
▁have	-145
be	-146
▁can	-147
shobora	-148
▁on	-149
je	-150
▁gi	-151
st	-152
▁S	-153
▁are	-154
mba	-155
han	-156
▁for	-157
▁and	-158
ver	-159
▁r	-160
▁li	-161
▁This	-162
▁ari	-163
▁sa	-164
zo	-165
▁wan	-166
▁bu	-167
▁Y	-168
od	-169
▁don	-170
▁ho	-171
gh	-172
▁ma	-173
▁so	-174
om	-175
de	-176
haka	-177
▁kn	-178
shi	-179
al	-180
▁K	-181
byo	-182
▁B	-183
▁th	-184
▁cyan	-185
ts	-186
ban	-187
▁iki	-188
ari	-189
▁muri	-190
mwe	-191
▁know	-192
▁did	-193
ter	-194
li	-195
▁an	-196
▁se	-197
▁Ntabwo	-198
▁ki	-199
fite	-200
di	-201
▁ubu	-202
sa	-203
sh	-204
at	-205
mo	-206
▁ama	-207
et	-208
ly	-209
kun	-210
mi	-211
pe	-212
ran	-213
cu	-214
bon	-215
▁there	-216
▁as	-217
kere	-218
ch	-219
cyo	-220
▁lo	-221
ould	-222
tekere	-223
ent	-224
▁nta	-225
▁hi	-226
to	-227
▁what	-228
ble	-229
▁You	-230
gomba	-231
her	-232
andi	-233
▁at	-234
▁kuri	-235
tion	-236
▁want	-237
▁wor	-238
jye	-239
▁cyane	-240
bwi	-241
▁hari	-242
ok	-243
▁ka	-244
▁Ibi	-245
ght	-246
▁There	-247
pp	-248
va	-249
▁D	-250
rwa	-251
▁Ni	-252
▁tu	-253
▁te	-254
intu	-255
▁ri	-256
▁his	-257
anga	-258
fu	-259
ren	-260
du	-261
▁pe	-262
pa	-263
▁igi	-264
yin	-265
vuga	-266
▁like	-267
▁your	-268
▁E	-269
▁bo	-270
▁ti	-271
la	-272
ple	-273
▁no	-274
shaka	-275
ca	-276
one	-277
▁bya	-278
▁my	-279
▁pro	-280
▁all	-281
▁ntabwo	-282
▁they	-283
▁G	-284
ted	-285
hen	-286
▁Mu	-287
▁kuba	-288
ir	-289
hou	-290
men	-291
▁ye	-292
▁with	-293
▁We	-294
ne	-295
it	-296
gen	-297
ore	-298
▁He	-299
,"	-300
▁R	-301
▁ca	-302
ink	-303
▁ib	-304
ry	-305
▁co	-306
▁neza	-307
▁time	-308
▁think	-309
kunda	-310
▁abo	-311
▁That	-312
zu	-313
▁nti	-314
ish	-315
gera	-316
▁su	-317
tekereza	-318
▁him	-319
▁would	-320
bona	-321
ryo	-322
res	-323
use	-324
▁nu	-325
▁j	-326
gira	-327
▁de	-328
▁Sin	-329
ani	-330
▁byo	-331
▁ru	-332
fe	-333
▁but	-334
▁P	-335
vi	-336
▁gukora	-337
▁aba	-338
▁un	-339
bere	-340
ntu	-341
thing	-342
tse	-343
▁Nta	-344
ci	-345
▁who	-346
bantu	-347
▁does	-348
ad	-349
▁y	-350
bazo	-351
▁about	-352
giye	-353
▁man	-354
▁kubi	-355
▁good	-356
so	-357
▁see	-358
ople	-359
very	-360
isa	-361
anda	-362
▁has	-363
▁one	-364
end	-365
▁si	-366
▁if	-367
▁ta	-368
bwa	-369
▁le	-370
▁kwi	-371
▁po	-372
▁happ	-373
▁ibyo	-374
lo	-375
▁pa	-376
rs	-377
das	-378
▁It	-379
ys	-380
ng	-381
▁people	-382
▁yi	-383
▁icyo	-384
▁some	-385
ong	-386
▁um	-387
ck	-388
here	-389
▁cya	-390
▁yari	-391
ct	-392
su	-393
gara	-394
▁al	-395
ind	-396
hy	-397
lly	-398
▁ex	-399
▁con	-400
ene	-401
ini	-402
kuri	-403
▁iyo	-404
▁Na	-405
ishi	-406
mva	-407
▁iyi	-408
geze	-409
▁ariko	-410
▁by	-411
▁du	-412
▁J	-413
fas	-414
▁didn	-415
▁when	-416
▁di	-417
gabo	-418
▁han	-419
jya	-420
▁ik	-421
▁C	-422
▁igihe	-423
▁am	-424
isi	-425
▁ga	-426
▁L	-427
mbo	-428
oro	-429
ven	-430
ther	-431
▁work	-432
yinshi	-433
ric	-434
▁had	-435
wan	-436
rom	-437
▁tell	-438
mvu	-439
▁fa	-440
▁us	-441
kome	-442
▁ata	-443
▁Hari	-444
▁were	-445
nd	-446
ur	-447
ally	-448
isha	-449
yuma	-450
▁uru	-451
▁Ntu	-452
nsi	-453
▁happen	-454
▁fi	-455
zwe	-456
▁here	-457
ine	-458
▁from	-459
▁need	-460
▁her	-461
▁byose	-462
▁zi	-463
▁any	-464
▁hel	-465
▁say	-466
gwa	-467
▁Ku	-468
▁love	-469
▁ac	-470
▁how	-471
twa	-472
▁get	-473
kan	-474
tan	-475
wose	-476
▁com	-477
▁very	-478
kuru	-479
bwira	-480
▁thing	-481
ol	-482
▁da	-483
▁never	-484
▁shou	-485
fa	-486
im	-487
bye	-488
▁help	-489
vuze	-490
yiza	-491
▁cyo	-492
▁abantu	-493
▁should	-494
tabo	-495
▁book	-496
qu	-497
rasi	-498
ngu	-499
▁ngo	-500
If	-501
gihe	-502
▁Iyi	-503
▁many	-504
gere	-505
der	-506
▁uko	-507
▁look	-508
do	-509
▁ro	-510
▁yu	-511
▁said	-512
day	-513
▁af	-514
huri	-515
▁aza	-516
ira	-517
▁bwa	-518
▁hear	-519
▁going	-520
▁proble	-521
bera	-522
▁imp	-523
alisa	-524
▁problem	-525
sed	-526
▁sho	-527
▁car	-528
▁sin	-529
▁uta	-530
▁take	-531
▁Tu	-532
▁en	-533
▁fe	-534
▁rya	-535
enshi	-536
pamvu	-537
▁rwose	-538
red	-539
▁Im	-540
▁or	-541
▁st	-542
▁nzi	-543
▁sta	-544
cause	-545
genda	-546
▁niba	-547
menya	-548
▁What	-549
rasira	-550
▁could	-551
kene	-552
▁come	-553
ary	-554
riye	-555
▁aka	-556
hild	-557
koze	-558
▁Iyo	-559
▁pla	-560
▁Eric	-561
▁them	-562
▁kandi	-563
▁up	-564
Ni	-565
kwi	-566
▁she	-567
ess	-568
far	-569
▁out	-570
enge	-571
▁uri	-572
ast	-573
gan	-574
▁gihe	-575
lt	-576
rt	-577
▁In	-578
▁uyu	-579
▁make	-580
▁mbere	-581
▁la	-582
▁nza	-583
▁much	-584
▁really	-585
nda	-586
oni	-587
sha	-588
▁uza	-589
▁told	-590
▁child	-591
▁ikintu	-592
wu	-593
kin	-594
rya	-595
▁aga	-596
▁How	-597
▁because	-598
▁spe	-599
▁been	-600
▁kubikora	-601
▁ke	-602
fasha	-603
▁hano	-604
▁other	-605
baye	-606
bwiye	-607
▁thou	-608
ise	-609
geza	-610
▁Iki	-611
▁why	-612
▁afite	-613
hose	-614
kore	-615
jwe	-616
▁mo	-617
▁yan	-618
▁their	-619
▁umuntu	-620
ree	-621
▁Ka	-622
▁Sim	-623
oka	-624
▁za	-625
▁par	-626
▁doesn	-627
hin	-628
ton	-629
▁ra	-630
▁something	-631
ano	-632
kana	-633
▁cyu	-634
▁Re	-635
shye	-636
jo	-637
wana	-638
gisha	-639
▁gusa	-640
▁these	-641
▁dif	-642
dashaka	-643
ked	-644
Niba	-645
▁Umu	-646
wanda	-647
▁Hariho	-648
yone	-649
▁Ura	-650
▁kub	-651
faranga	-652
mbi	-653
▁kw	-654
▁mi	-655
▁lot	-656
▁nka	-657
▁v	-658
▁ab	-659
hing	-660
king	-661
mera	-662
odoka	-663
na	-664
▁God	-665
er	-666
ty	-667
rou	-668
▁wo	-669
▁aho	-670
▁than	-671
bikora	-672
rin	-673
▁Do	-674
▁hu	-675
▁fo	-676
▁give	-677
mbe	-678
▁sc	-679
▁Don	-680
▁Tom	-681
▁way	-682
kores	-683
▁ubwo	-684
▁kuvuga	-685
▁z	-686
shyi	-687
wiza	-688
▁tal	-689
hoboka	-690
ase	-691
ruka	-692
▁twa	-693
▁more	-694
▁ic	-695
oney	-696
▁now	-697
▁house	-698
tin	-699
menye	-700
▁kugu	-701
▁cyangwa	-702
fore	-703
zaba	-704
ariya	-705
ment	-706
hanga	-707
▁money	-708
▁eat	-709
other	-710
▁year	-711
pu	-712
ous	-713
biri	-714
keneye	-715
ity	-716
baba	-717
gani	-718
ning	-719
▁stu	-720
▁tru	-721
pi	-722
fata	-723
▁our	-724
giran	-725
▁before	-726
▁kubona	-727
▁sto	-728
▁munsi	-729
ama	-730
row	-731
ved	-732
indi	-733
zima	-734
▁bwo	-735
?"	-736
twe	-737
andu	-738
ting	-739
▁nki	-740
▁right	-741
▁those	-742
▁byinshi	-743
ide	-744
▁jo	-745
▁imi	-746
bonye	-747
▁kumu	-748
▁Imana	-749
▁after	-750
bis	-751
▁things	-752
ni	-753
ome	-754
shu	-755
hool	-756
yine	-757
mwa	-758
rika	-759
▁bari	-760
komeye	-761
▁gitabo	-762
▁O	-763
uru	-764
gije	-765
▁kun	-766
▁won	-767
▁ibintu	-768
byi	-769
mye	-770
▁Pa	-771
▁Nya	-772
▁anything	-773
▁ndi	-774
▁under	-775
girango	-776
▁Mariya	-777
aha	-778
oun	-779
pan	-780
▁Ha	-781
yaka	-782
▁ban	-783
tekerezo	-784
▁amafaranga	-785
lan	-786
zera	-787
▁Mary	-788
▁bira	-789
▁school	-790
▁kugirango	-791
hari	-792
reba	-793
▁ara	-794
▁find	-795
▁long	-796
▁kugira	-797
ek	-798
el	-799
ja	-800
ust	-801
ves	-802
▁ad	-803
▁byu	-804
▁gut	-805
▁call	-806
▁well	-807
▁word	-808
▁yawe	-809
▁nyuma	-810
▁thought	-811
▁nshobora	-812
banu	-813
▁Nti	-814
▁ntu	-815
▁read	-816
▁kujya	-817
lf	-818
no	-819
▁F	-820
ten	-821
▁Aba	-822
▁iri	-823
▁let	-824
▁mugihe	-825
rd	-826
xt	-827
les	-828
▁ar	-829
zira	-830
anzwe	-831
▁buri	-832
▁week	-833
▁where	-834
▁kalisa	-835
ful	-836
rwe	-837
▁Wa	-838
ring	-839
▁cyi	-840
lease	-841
ep	-842
un	-843
ach	-844
man	-845
▁Nda	-846
senge	-847
wanya	-848
▁doing	-849
▁hirwa	-850
lie	-851
gana	-852
yama	-853
▁mis	-854
▁nku	-855
▁only	-856
▁byari	-857
▁kurya	-858
▁ikibazo	-859
▁ushobora	-860
tter	-861
▁uwo	-862
yango	-863
▁sure	-864
▁Ya	-865
den	-866
korwa	-867
▁home	-868
ic	-869
▁nda	-870
▁Muri	-871
▁They	-872
▁life	-873
▁room	-874
▁spea	-875
ft	-876
umu	-877
▁Bu	-878
rong	-879
tsin	-880
▁ita	-881
▁tra	-882
▁nawe	-883
gereza	-884
kuriki	-885
▁kimwe	-886
▁yanjye	-887
▁kumenya	-888
▁nothing	-889
▁Sinshobora	-890
gn	-891
▁""	-892
mber	-893
shya	-894
▁Nza	-895
▁bas	-896
▁lea	-897
tions	-898
▁must	-899
▁byiza	-900
▁kubera	-901
▁impamvu	-902
po	-903
▁Is	-904
jyan	-905
rist	-906
ture	-907
▁ejo	-908
mweru	-909
▁chan	-910
▁Nibyo	-911
▁again	-912
kwe	-913
▁Ubu	-914
hindu	-915
▁bose	-916
▁inte	-917
▁went	-918
reat	-919
▁dis	-920
▁pre	-921
▁hope	-922
▁mugisha	-923
ord	-924
▁No	-925
shin	-926
ying	-927
feren	-928
▁Kuki	-929
▁biza	-930
▁meet	-931
▁plan	-932
▁underst	-933
cy	-934
ji	-935
byu	-936
▁qu	-937
mere	-938
raga	-939
▁Why	-940
▁bad	-941
▁bus	-942
▁use	-943
▁able	-944
▁yara	-945
▁benshi	-946
▁kibazo	-947
▁wanjye	-948
lu	-949
ans	-950
ason	-951
baho	-952
mura	-953
▁Let	-954
▁buy	-955
▁day	-956
▁kin	-957
▁wri	-958
▁ever	-959
▁belie	-960
▁every	-961
▁karasira	-962
rn	-963
ory	-964
tes	-965
tsi	-966
▁bw	-967
hout	-968
rimo	-969
tera	-970
kanye	-971
kobwa	-972
riend	-973
▁kuko	-974
▁talk	-975
▁akazi	-976
▁buryo	-977
am	-978
uka	-979
wer	-980
gore	-981
mune	-982
rira	-983
rson	-984
▁last	-985
muneka	-986
▁wanted	-987
▁differen	-988
ways	-989
ryango	-990
koresha	-991
▁always	-992
▁mugabo	-993
mv	-994
mbu	-995
▁new	-996
tondo	-997
▁Bira	-998
▁mfite	-999
bya	-1000
mvi	-1001
▁Bi	-1002
hugu	-1003
ving	-1004
▁acc	-1005
▁min	-1006
▁mor	-1007
▁wen	-1008
▁kuku	-1009
kusenge	-1010
▁nyinshi	-1011
▁children	-1012
▁h	-1013
fuza	-1014
▁job	-1015
▁mar	-1016
▁Reka	-1017
▁even	-1018
▁kugeza	-1019
▁morning	-1020
▁vu	-1021
tege	-1022
zere	-1023
▁nas	-1024
▁ura	-1025
▁amas	-1026
▁mwiza	-1027
▁happened	-1028
ac	-1029
hus	-1030
ina	-1031
zwa	-1032
ough	-1033
▁Nzi	-1034
▁azi	-1035
ather	-1036
gambo	-1037
tanga	-1038
▁kuru	-1039
▁Kalisa	-1040
▁friend	-1041
▁reason	-1042
▁wenyine	-1043
for	-1044
hed	-1045
gize	-1046
rere	-1047
▁eas	-1048
▁exp	-1049
orrow	-1050
▁vuba	-1051
▁heard	-1052
▁nziza	-1053
▁Simoni	-1054
▁enough	-1055
▁person	-1056
▁understand	-1057
bw	-1058
ew	-1059
wn	-1060
▁.	-1061
irst	-1062
▁ask	-1063
▁ear	-1064
▁gat	-1065
▁kwa	-1066
▁feel	-1067
▁just	-1068
mp	-1069
est	-1070
ongo	-1071
ried	-1072
▁old	-1073
▁put	-1074
▁uzi	-1075
▁whi	-1076
buryo	-1077
▁live	-1078
▁tuta	-1079
ishije	-1080
▁Simon	-1081
▁Sinzi	-1082
▁cyose	-1083
▁hamwe	-1084
ul	-1085
ence	-1086
▁cha	-1087
▁mwa	-1088
twara	-1089
hagije	-1090
▁speak	-1091
▁today	-1092
▁ufite	-1093
▁anyone	-1094
ls	-1095
ms	-1096
esh	-1097
pfu	-1098
▁cy	-1099
ciro	-1100
gati	-1101
gura	-1102
haga	-1103
ount	-1104
▁may	-1105
▁nya	-1106
kwiye	-1107
▁Hano	-1108
▁Icyo	-1109
▁bite	-1110
▁done	-1111
▁ukuri	-1112
▁Rwanda	-1113
▁ushaka	-1114
ell	-1115
mpa	-1116
ssi	-1117
ywa	-1118
▁nk	-1119
yobo	-1120
▁Uwo	-1121
▁res	-1122
kintu	-1123
▁guso	-1124
▁left	-1125
▁knows	-1126
▁three	-1127
ces	-1128
cya	-1129
iso	-1130
kira	-1131
self	-1132
▁byi	-1133
▁saa	-1134
▁wit	-1135
shuti	-1136
▁care	-1137
▁great	-1138
▁rimwe	-1139
▁akunda	-1140
▁menshi	-1141
pt	-1142
▁Bo	-1143
kire	-1144
ound	-1145
▁gir	-1146
▁nde	-1147
▁too	-1148
ishyu	-1149
▁gute	-1150
▁mubi	-1151
andiko	-1152
ongera	-1153
▁first	-1154
▁years	-1155
▁change	-1156
▁ugomba	-1157
tle	-1158
▁two	-1159
hungu	-1160
ident	-1161
▁back	-1162
▁next	-1163
▁place	-1164
▁world	-1165
▁imodoka	-1166
▁Ba	-1167
▁rw	-1168
curu	-1169
ramo	-1170
reke	-1171
▁mun	-1172
hirwe	-1173
▁bara	-1174
▁made	-1175
▁These	-1176
▁ntiba	-1177
▁imyaka	-1178
ris	-1179
▁Ja	-1180
▁Jo	-1181
▁Nu	-1182
▁el	-1183
▁sp	-1184
ingo	-1185
meze	-1186
subi	-1187
tuma	-1188
▁Uyu	-1189
▁dec	-1190
▁Ibyo	-1191
bikoze	-1192
▁kintu	-1193
▁muntu	-1194
▁wrong	-1195
▁believe	-1196
ue	-1197
us	-1198
ubi	-1199
▁Ma	-1200
▁op	-1201
▁zo	-1202
bura	-1203
gaye	-1204
rana	-1205
▁fami	-1206
▁hard	-1207
ishimi	-1208
▁alone	-1209
▁impor	-1210
▁Please	-1211
▁gitondo	-1212
▁Ndashaka	-1213
jyi	-1214
ndi	-1215
til	-1216
▁Ch	-1217
giza	-1218
kosa	-1219
▁ide	-1220
▁iza	-1221
▁saw	-1222
▁tom	-1223
▁also	-1224
▁else	-1225
▁kuva	-1226
korera	-1227
▁happy	-1228
▁kumva	-1229
▁night	-1230
▁kinini	-1231
dushobora	-1232
▁importan	-1233
arn	-1234
mes	-1235
▁cl	-1236
guru	-1237
riza	-1238
till	-1239
▁pay	-1240
▁rwa	-1241
ganira	-1242
tekereje	-1243
▁without	-1244
▁Nyamuneka	-1245
owe	-1246
▁mw	-1247
juru	-1248
reka	-1249
▁ahu	-1250
▁bea	-1251
▁cye	-1252
▁ten	-1253
▁muru	-1254
▁reme	-1255
▁wawe	-1256
▁yose	-1257
tsinda	-1258
mvikana	-1259
▁imbere	-1260
▁kubaho	-1261
garagara	-1262
ger	-1263
baza	-1264
cult	-1265
▁abi	-1266
▁fin	-1267
▁mon	-1268
▁nte	-1269
▁wom	-1270
anjye	-1271
▁Nari	-1272
▁food	-1273
▁nari	-1274
ssible	-1275
▁until	-1276
shoboka	-1277
▁contin	-1278
▁ubwoba	-1279
▁umwanya	-1280
▁tomorrow	-1281
Ku	-1282
age	-1283
ses	-1284
yes	-1285
▁ry	-1286
▁cle	-1287
banya	-1288
fashe	-1289
▁bata	-1290
▁days	-1291
▁wari	-1292
ficult	-1293
komeza	-1294
▁inama	-1295
▁still	-1296
▁mpamvu	-1297
▁uburyo	-1298
▁difficult	-1299
He	-1300
Iyo	-1301
vin	-1302
guye	-1303
yaga	-1304
▁isi	-1305
bwire	-1306
ction	-1307
hunda	-1308
ision	-1309
kunze	-1310
munsi	-1311
retse	-1312
▁easy	-1313
▁show	-1314
▁umwe	-1315
▁used	-1316
wanjye	-1317
▁gutya	-1318
▁nkaho	-1319
▁cyumba	-1320
▁yavuze	-1321
andukanye	-1322
hes	-1323
ist	-1324
min	-1325
▁My	-1326
▁Wi	-1327
pani	-1328
riya	-1329
yira	-1330
▁bui	-1331
▁kwe	-1332
▁njye	-1333
hakaga	-1334
▁asked	-1335
▁mista	-1336
▁wants	-1337
▁Abantu	-1338
▁kagabo	-1339
▁Karasira	-1340
co	-1341
ket	-1342
▁Gu	-1343
mara	-1344
noon	-1345
▁"""	-1346
▁app	-1347
▁big	-1348
▁bwi	-1349
▁sha	-1350
▁try	-1351
husho	-1352
ranye	-1353
tween	-1354
▁Niba	-1355
▁bita	-1356
▁mean	-1357
▁nuko	-1358
▁stop	-1359
▁abana	-1360
▁atari	-1361
▁count	-1362
▁Ugomba	-1363
▁between	-1364
▁kugenda	-1365
▁Sinshaka	-1366
▁afternoon	-1367
hn	-1368
not	-1369
our	-1370
bana	-1371
inde	-1372
maze	-1373
rage	-1374
zina	-1375
▁bis	-1376
▁its	-1377
▁mas	-1378
▁nzu	-1379
▁best	-1380
▁city	-1381
▁ibya	-1382
▁king	-1383
▁rain	-1384
▁wese	-1385
▁hagati	-1386
▁umwana	-1387
gerageza	-1388
▁gahunda	-1389
▁someone	-1390
▁ntashobora	-1391
Nu	-1392
ss	-1393
mas	-1394
ort	-1395
the	-1396
buka	-1397
lish	-1398
tain	-1399
ties	-1400
▁end	-1401
▁inc	-1402
fungu	-1403
▁Tura	-1404
▁expe	-1405
▁inzu	-1406
▁nabi	-1407
hoboye	-1408
roshye	-1409
shyira	-1410
▁Nizere	-1411
▁ishuri	-1412
▁meeting	-1413
▁Ntushobora	-1414
Mu	-1415
gis	-1416
▁fu	-1417
gabe	-1418
goye	-1419
guze	-1420
kura	-1421
mana	-1422
mbwa	-1423
▁Ese	-1424
▁ans	-1425
▁rep	-1426
gingo	-1427
handa	-1428
hantu	-1429
▁Tell	-1430
▁drin	-1431
▁guha	-1432
▁numu	-1433
▁says	-1434
▁soon	-1435
▁wait	-1436
▁avuga	-1437
▁nibyo	-1438
mishije	-1439
▁ntacyo	-1440
▁ibibazo	-1441
▁mistake	-1442
▁ubuzima	-1443
▁Nshobora	-1444
▁different	-1445
▁important	-1446
In	-1447
cyu	-1448
▁Ar	-1449
bizi	-1450
cept	-1451
gute	-1452
joro	-1453
tely	-1454
▁Who	-1455
▁aha	-1456
▁icu	-1457
▁ira	-1458
▁lar	-1459
mbere	-1460
mvise	-1461
▁came	-1462
▁hand	-1463
▁into	-1464
▁poli	-1465
▁learn	-1466
▁month	-1467
▁words	-1468
▁cannot	-1469
▁modoka	-1470
mya	-1471
hita	-1472
mali	-1473
meza	-1474
▁Bya	-1475
▁bye	-1476
▁got	-1477
▁men	-1478
renze	-1479
▁idea	-1480
▁knew	-1481
▁yumu	-1482
bwenge	-1483
rwanda	-1484
▁ntiya	-1485
▁ukora	-1486
▁family	-1487
▁matter	-1488
▁nshaka	-1489
▁yagiye	-1490
ishimiye	-1491
ny	-1492
lve	-1493
ond	-1494
▁Ki	-1495
cted	-1496
kino	-1497
ttle	-1498
▁Iri	-1499
▁gato	-1500
▁icyu	-1501
▁umun	-1502
Ntabwo	-1503
rangiza	-1504
▁gufata	-1505
▁Ntekereza	-1506
bwe	-1507
san	-1508
tic	-1509
besh	-1510
lain	-1511
▁Ndi	-1512
▁twe	-1513
▁wat	-1514
rimbo	-1515
▁When	-1516
▁baza	-1517
▁gave	-1518
▁hafi	-1519
▁iryo	-1520
▁mubu	-1521
▁nice	-1522
▁sita	-1523
garaga	-1524
garuka	-1525
yobozi	-1526
ngereza	-1527
▁kureba	-1528
▁nkunda	-1529
▁Utekereza	-1530
uti	-1531
When	-1532
ande	-1533
bagi	-1534
gire	-1535
guha	-1536
kara	-1537
onje	-1538
rire	-1539
rori	-1540
saba	-1541
side	-1542
teri	-1543
▁Eng	-1544
▁bla	-1545
▁clo	-1546
jyana	-1547
▁Some	-1548
▁byan	-1549
▁open	-1550
▁real	-1551
▁same	-1552
▁teac	-1553
▁true	-1554
banura	-1555
tegeko	-1556
▁books	-1557
▁loves	-1558
▁party	-1559
hindura	-1560
kubwiye	-1561
▁beauti	-1562
▁called	-1563
▁Urashaka	-1564
aba	-1565
anu	-1566
ino	-1567
led	-1568
ron	-1569
sen	-1570
tal	-1571
▁Lo	-1572
▁Pe	-1573
bone	-1574
goro	-1575
kina	-1576
rezi	-1577
▁Gas	-1578
▁awa	-1579
jambo	-1580
mbara	-1581
risto	-1582
round	-1583
▁imvu	-1584
▁name	-1585
▁over	-1586
▁seri	-1587
▁stud	-1588
kemura	-1589
yapani	-1590
▁Japan	-1591
▁akora	-1592
▁kwiga	-1593
shakaga	-1594
▁ahantu	-1595
▁better	-1596
▁father	-1597
▁English	-1598
dashobora	-1599
▁amahirwe	-1600
▁problems	-1601
▁remember	-1602
The	-1603
ors	-1604
tun	-1605
zan	-1606
▁Ru	-1607
bili	-1608
leep	-1609
mezo	-1610
tima	-1611
wulo	-1612
▁All	-1613
▁dog	-1614
▁kum	-1615
▁mir	-1616
▁win	-1617
Nubwo	-1618
▁sent	-1619
shinga	-1620
▁infor	-1621
▁large	-1622
▁leave	-1623
bishaka	-1624
yeshuri	-1625
▁kuriyi	-1626
▁little	-1627
▁mother	-1628
▁amakosa	-1629
shoboraga	-1630
▁beautiful	-1631
il	-1632
You	-1633
gry	-1634
mit	-1635
ose	-1636
guri	-1637
hura	-1638
kiri	-1639
▁She	-1640
▁bit	-1641
▁bwe	-1642
▁cho	-1643
▁sur	-1644
▁yin	-1645
inshi	-1646
muntu	-1647
shize	-1648
tumwa	-1649
tumye	-1650
yumva	-1651
▁John	-1652
▁imwe	-1653
▁ques	-1654
▁road	-1655
▁tuza	-1656
▁angry	-1657
▁ryari	-1658
▁speci	-1659
▁times	-1660
▁Mugabe	-1661
▁couldn	-1662
▁gusoma	-1663
▁looking	-1664
▁ashobora	-1665
▁everyone	-1666
▁possible	-1667
▁everything	-1668
int	-1669
hora	-1670
sion	-1671
vuye	-1672
▁Uru	-1673
▁kid	-1674
ganga	-1675
▁keep	-1676
▁kuta	-1677
▁niyo	-1678
▁toge	-1679
▁umwa	-1680
▁yabo	-1681
merika	-1682
vugana	-1683
▁Mfite	-1684
▁bantu	-1685
▁cyiza	-1686
▁story	-1687
▁train	-1688
▁bafite	-1689
▁comple	-1690
▁country	-1691
▁cyumweru	-1692
▁together	-1693
ibi	-1694
sin	-1695
▁Gi	-1696
▁es	-1697
hone	-1698
llow	-1699
rimu	-1700
sore	-1701
taha	-1702
turn	-1703
▁bir	-1704
▁bou	-1705
byeyi	-1706
guage	-1707
iness	-1708
kanya	-1709
▁play	-1710
▁song	-1711
mbwiye	-1712
▁bwiza	-1713
▁drink	-1714
▁found	-1715
▁makes	-1716
▁Christ	-1717
▁Nigute	-1718
▁agomba	-1719
▁answer	-1720
▁kugura	-1721
▁letter	-1722
▁return	-1723
▁Tugomba	-1724
▁ntekereza	-1725
▁byukusenge	-1726
ju	-1727
lk	-1728
get	-1729
ubu	-1730
▁vi	-1731
buze	-1732
hise	-1733
orry	-1734
owed	-1735
zuba	-1736
▁che	-1737
▁few	-1738
▁pic	-1739
▁sec	-1740
▁war	-1741
mutse	-1742
renga	-1743
rutse	-1744
▁Paul	-1745
▁firi	-1746
▁girl	-1747
▁indi	-1748
▁issu	-1749
▁maze	-1750
▁pres	-1751
▁requ	-1752
▁such	-1753
▁then	-1754
▁yuko	-1755
mation	-1756
▁bintu	-1757
▁build	-1758
▁mbona	-1759
▁sibyo	-1760
▁stand	-1761
▁table	-1762
▁worry	-1763
▁young	-1764
anguage	-1765
▁Pawulo	-1766
▁ahubwo	-1767
▁aricyo	-1768
▁hejuru	-1769
▁friends	-1770
▁inshuti	-1771
▁kuburyo	-1772
▁teacher	-1773
▁information	-1774
by	-1775
ffe	-1776
lle	-1777
rea	-1778
uld	-1779
urs	-1780
vie	-1781
▁Ke	-1782
▁cu	-1783
ness	-1784
raid	-1785
ries	-1786
shwa	-1787
ster	-1788
tive	-1789
ziko	-1790
▁per	-1791
sabye	-1792
yenda	-1793
▁ibis	-1794
▁imba	-1795
▁kuza	-1796
▁niki	-1797
▁pacy	-1798
▁part	-1799
▁stay	-1800
jyanye	-1801
▁paren	-1802
▁watch	-1803
▁water	-1804
anditse	-1805
▁abandi	-1806
▁afraid	-1807
▁kunywa	-1808
▁mirongo	-1809
▁decision	-1810
▁byoroshye	-1811
▁kukubwira	-1812
▁Natekereje	-1813
""	-1814
nga	-1815
ral	-1816
▁nd	-1817
This	-1818
anya	-1819
bare	-1820
ised	-1821
kazi	-1822
maro	-1823
seze	-1824
▁Not	-1825
▁ati	-1826
▁dan	-1827
▁fun	-1828
▁hea	-1829
▁non	-1830
▁opp	-1831
▁run	-1832
genzi	-1833
▁Look	-1834
▁arri	-1835
▁five	-1836
▁kill	-1837
▁muma	-1838
▁wind	-1839
andika	-1840
cation	-1841
▁Where	-1842
▁being	-1843
▁icumi	-1844
▁mwana	-1845
▁ngiye	-1846
▁ntago	-1847
▁throu	-1848
▁bought	-1849
▁hariya	-1850
▁others	-1851
▁bigomba	-1852
▁talking	-1853
▁tugomba	-1854
▁umugabo	-1855
▁language	-1856
▁sinshobora	-1857
Sin	-1858
tso	-1859
▁Ab	-1860
▁If	-1861
▁mp	-1862
isit	-1863
read	-1864
ruro	-1865
siye	-1866
ston	-1867
▁Dom	-1868
▁Uza	-1869
▁ada	-1870
▁aya	-1871
▁des	-1872
▁sma	-1873
dents	-1874
nauld	-1875
ubizo	-1876
▁each	-1877
▁game	-1878
▁kare	-1879
▁nibi	-1880
▁supp	-1881
fuzaga	-1882
ishuri	-1883
teguye	-1884
▁cause	-1885
▁cyawe	-1886
▁solve	-1887
▁sorry	-1888
▁truth	-1889
▁uriya	-1890
babajwe	-1891
ishyura	-1892
▁Boston	-1893
▁finish	-1894
▁inzira	-1895
▁muriyi	-1896
▁ndetse	-1897
▁ngomba	-1898
▁please	-1899
▁Arnauld	-1900
▁another	-1901
▁cyanjye	-1902
yukusenge	-1903
▁kubyumva	-1904
tekerezaga	-1905
▁Ntidushobora	-1906
ane	-1907
ant	-1908
ced	-1909
ken	-1910
vid	-1911
wim	-1912
▁Be	-1913
▁Du	-1914
▁pi	-1915
fice	-1916
gahe	-1917
ight	-1918
irwa	-1919
keka	-1920
kiye	-1921
less	-1922
ress	-1923
shyu	-1924
taka	-1925
▁boy	-1926
▁rwe	-1927
▁twi	-1928
▁uda	-1929
▁uku	-1930
▁aban	-1931
▁bisa	-1932
▁kuki	-1933
▁most	-1934
▁mugi	-1935
▁tele	-1936
▁tura	-1937
goroba	-1938
▁bwawe	-1939
▁minsi	-1940
▁mwaka	-1941
▁nkibi	-1942
hangayi	-1943
yandiko	-1944
▁accept	-1945
▁habaye	-1946
▁murugo	-1947
▁kujyayo	-1948
▁serious	-1949
▁continue	-1950
▁students	-1951
dia	-1952
gra	-1953
kwa	-1954
med	-1955
mon	-1956
per	-1957
ret	-1958
yed	-1959
▁tw	-1960
ball	-1961
hama	-1962
lima	-1963
taye	-1964
velo	-1965
▁Can	-1966
▁Twa	-1967
▁cat	-1968
▁law	-1969
▁nko	-1970
▁own	-1971
▁sit	-1972
▁Sini	-1973
▁clot	-1974
▁cold	-1975
▁kera	-1976
▁kind	-1977
▁yaba	-1978
beshye	-1979
rengan	-1980
rested	-1981
▁early	-1982
▁nkuko	-1983
▁umusa	-1984
▁woman	-1985
sterday	-1986
▁forget	-1987
▁harimo	-1988
▁ijambo	-1989
▁imvura	-1990
▁byabaye	-1991
▁parents	-1992
▁through	-1993
▁weekend	-1994
▁amagambo	-1995
▁kurangiza	-1996
▁yesterday	-1997
▁Byukusenge	-1998
gy	-1999
ass	-2000
dul	-2001
ork	-2002
she	-2003
▁ag	-2004
▁br	-2005
▁ur	-2006
ject	-2007
pany	-2008
tend	-2009
tuye	-2010
▁Ama	-2011
▁bin	-2012
▁fai	-2013
▁iba	-2014
▁son	-2015
ishyi	-2016
▁away	-2017
▁door	-2018
▁kazi	-2019
▁kira	-2020
▁koga	-2021
▁lost	-2022
▁mumu	-2023
▁swim	-2024
▁took	-2025
▁ukun	-2026
▁wish	-2027
▁yacu	-2028
gereje	-2029
rekana	-2030
▁Ninde	-2031
▁earth	-2032
▁likes	-2033
▁ntibi	-2034
▁visit	-2035
▁write	-2036
oroshye	-2037
zongera	-2038
▁Kristo	-2039
▁firime	-2040
▁hariho	-2041
▁though	-2042
▁explain	-2043
▁gukoresha	-2044
▁igitekerezo	-2045
iti	-2046
ize	-2047
lic	-2048
yer	-2049
▁ja	-2050
▁pu	-2051
▁wu	-2052
bahi	-2053
cess	-2054
ctly	-2055
ctor	-2056
gali	-2057
ruwa	-2058
ship	-2059
tswe	-2060
wara	-2061
▁His	-2062
▁Igi	-2063
▁ayo	-2064
▁ima	-2065
▁ryo	-2066
▁ubi	-2067
▁ugu	-2068
cious	-2069
ishwa	-2070
kundo	-2071
nyine	-2072
oneho	-2073
velop	-2074
▁Reba	-2075
▁case	-2076
▁kiza	-2077
▁koko	-2078
▁late	-2079
▁refu	-2080
▁seen	-2081
▁waba	-2082
rezida	-2083
▁hours	-2084
▁imbwa	-2085
▁later	-2086
▁looks	-2087
▁mujyi	-2088
▁point	-2089
▁since	-2090
gombaga	-2091
tangira	-2092
▁Ngomba	-2093
▁around	-2094
▁ikindi	-2095
▁brother	-2096
▁cyilima	-2097
▁happens	-2098
▁ngombwa	-2099
▁special	-2100
▁accident	-2101
▁imbaraga	-2102
▁Urashobora	-2103
▁difference	-2104
No	-2105
ars	-2106
ath	-2107
spe	-2108
▁An	-2109
▁Da	-2110
▁So	-2111
gare	-2112
jira	-2113
riko	-2114
rimi	-2115
ront	-2116
tora	-2117
utse	-2118
▁May	-2119
▁far	-2120
▁ngu	-2121
▁usu	-2122
ganda	-2123
rwaye	-2124
shing	-2125
shuro	-2126
▁bibi	-2127
▁gica	-2128
▁nama	-2129
▁surp	-2130
Kubera	-2131
curuzi	-2132
hitamo	-2133
kenewe	-2134
▁Ntago	-2135
▁given	-2136
▁impan	-2137
▁isaha	-2138
▁itatu	-2139
▁izina	-2140
▁movie	-2141
▁nkora	-2142
▁prepa	-2143
▁start	-2144
ishimye	-2145
tangaje	-2146
▁bivuze	-2147
▁bizaba	-2148
▁inyuma	-2149
▁kabiri	-2150
▁nanjye	-2151
▁ngingo	-2152
kurikije	-2153
menyetso	-2154
▁allowed	-2155
▁clothes	-2156
▁company	-2157
renganzira	-2158
tandukanye	-2159
▁gicamunsi	-2160
ard	-2161
asi	-2162
spi	-2163
ugh	-2164
daso	-2165
ense	-2166
esus	-2167
inya	-2168
koro	-2169
kubi	-2170
muka	-2171
pera	-2172
vice	-2173
▁Nas	-2174
▁Sta	-2175
▁Uni	-2176
▁ako	-2177
▁bot	-2178
▁ele	-2179
▁exa	-2180
▁mwi	-2181
▁pen	-2182
▁thi	-2183
▁uwa	-2184
gende	-2185
genze	-2186
sanga	-2187
▁Umwa	-2188
▁bike	-2189
▁down	-2190
▁icya	-2191
▁imme	-2192
▁joro	-2193
▁minu	-2194
▁muto	-2195
▁nini	-2196
▁toni	-2197
mvumba	-2198
▁Igihe	-2199
▁bring	-2200
▁fight	-2201
▁hantu	-2202
▁issue	-2203
▁known	-2204
▁kumwe	-2205
▁moshi	-2206
▁ntaza	-2207
▁ntazi	-2208
▁while	-2209
kwiriye	-2210
sezeran	-2211
▁bibaho	-2212
▁dufite	-2213
▁nonaha	-2214
▁number	-2215
▁office	-2216
▁saying	-2217
▁shusho	-2218
hoboraga	-2219
▁Mubwire	-2220
▁Nkeneye	-2221
▁kwizera	-2222
▁waiting	-2223
▁building	-2224
▁impanuka	-2225
▁dushobora	-2226
ishimishije	-2227
▁gutekereza	-2228
Ibi	-2229
ang	-2230
cts	-2231
ner	-2232
oto	-2233
uza	-2234
vel	-2235
▁Sa	-2236
anze	-2237
ding	-2238
hika	-2239
hind	-2240
huhe	-2241
pped	-2242
rica	-2243
sura	-2244
ters	-2245
yina	-2246
yuba	-2247
▁cor	-2248
▁gra	-2249
▁ser	-2250
▁shi	-2251
▁sim	-2252
banga	-2253
pfuye	-2254
▁bamu	-2255
▁biri	-2256
▁fore	-2257
▁imyi	-2258
▁kaga	-2259
▁kibi	-2260
▁kiri	-2261
▁kure	-2262
▁kuwa	-2263
▁meza	-2264
▁mind	-2265
▁sick	-2266
▁sign	-2267
▁text	-2268
angahe	-2269
gerage	-2270
▁amaze	-2271
▁close	-2272
▁conce	-2273
▁cyari	-2274
▁means	-2275
▁produ	-2276
▁seems	-2277
▁shoes	-2278
▁sleep	-2279
▁study	-2280
▁tired	-2281
▁which	-2282
▁works	-2283
koresho	-2284
▁follow	-2285
▁kuruta	-2286
▁nigeze	-2287
▁strong	-2288
▁wouldn	-2289
▁develop	-2290
▁ibitabo	-2291
▁project	-2292
▁tonight	-2293
▁working	-2294
▁business	-2295
▁Nyamvumba	-2296
As	-2297
um	-2298
any	-2299
ark	-2300
bly	-2301
cle	-2302
ign	-2303
lar	-2304
lli	-2305
now	-2306
ons	-2307
que	-2308
▁Rw	-2309
▁To	-2310
▁ze	-2311
able	-2312
ansa	-2313
fone	-2314
heje	-2315
horo	-2316
keye	-2317
pira	-2318
poro	-2319
ruhu	-2320
sing	-2321
zana	-2322
▁bed	-2323
▁rec	-2324
▁rye	-2325
▁sun	-2326
gendo	-2327
hough	-2328
konje	-2329
▁baba	-2330
▁enjo	-2331
▁foot	-2332
▁gito	-2333
▁ibyi	-2334
▁impa	-2335
▁kari	-2336
▁nubu	-2337
▁park	-2338
▁rich	-2339
▁sing	-2340
▁ubus	-2341
▁ubwa	-2342
▁wife	-2343
banuro	-2344
hagara	-2345
yemezo	-2346
▁Abdul	-2347
▁Ngiye	-2348
▁allow	-2349
▁birth	-2350
▁byaba	-2351
▁clear	-2352
▁front	-2353
▁nkuru	-2354
▁nubwo	-2355
diately	-2356
▁Birasa	-2357
▁United	-2358
▁attend	-2359
▁market	-2360
▁needed	-2361
▁ntibis	-2362
hagarika	-2363
shingano	-2364
▁inshuro	-2365
▁married	-2366
▁Sinigeze	-2367
▁yambwiye	-2368
▁nashakaga	-2369
▁umuryango	-2370
▁immediately	-2371
gs	-2372
vo	-2373
▁ij	-2374
alth	-2375
aran	-2376
jije	-2377
mini	-2378
rest	-2379
riro	-2380
tari	-2381
wers	-2382
yoni	-2383
▁And	-2384
▁Ken	-2385
▁ate	-2386
▁bri	-2387
▁dri	-2388
▁flo	-2389
▁iko	-2390
▁isa	-2391
▁izi	-2392
▁kur	-2393
▁met	-2394
▁uka	-2395
ished	-2396
kweto	-2397
ndred	-2398
tegan	-2399
times	-2400
▁Tuza	-2401
▁bisi	-2402
▁busy	-2403
▁exam	-2404
▁four	-2405
▁igis	-2406
▁kire	-2407
▁mach	-2408
bayeho	-2409
minuza	-2410
ording	-2411
siyete	-2412
tional	-2413
yigeze	-2414
▁Ntuga	-2415
▁Rwand	-2416
▁ahari	-2417
▁black	-2418
▁clean	-2419
▁comes	-2420
▁death	-2421
▁discu	-2422
▁hospi	-2423
▁kubyo	-2424
▁power	-2425
▁teach	-2426
▁urimo	-2427
▁uvuga	-2428
▁women	-2429
faransa	-2430
hishika	-2431
tangiye	-2432
▁Umuntu	-2433
▁aribyo	-2434
▁myself	-2435
▁ubwoko	-2436
▁yakoze	-2437
hangayik	-2438
▁Gashuhe	-2439
▁amakuru	-2440
▁exactly	-2441
▁gushaka	-2442
▁hundred	-2443
▁kongera	-2444
▁picture	-2445
▁shouldn	-2446
▁umugore	-2447
▁umutima	-2448
▁Mbabajwe	-2449
▁ababyeyi	-2450
▁bihagije	-2451
▁gukomeza	-2452
▁gutsinda	-2453
▁kaminuza	-2454
▁kuvugana	-2455
▁ndirimbo	-2456
▁udashaka	-2457
▁icyongereza	-2458
kw	-2459
dge	-2460
fat	-2461
ice	-2462
nye	-2463
pfa	-2464
tis	-2465
▁Ju	-2466
caye	-2467
fuzo	-2468
mplo	-2469
rane	-2470
sita	-2471
tten	-2472
yumv	-2473
zuye	-2474
▁ese	-2475
▁gas	-2476
▁iso	-2477
▁nin	-2478
▁nor	-2479
mpaye	-2480
tonde	-2481
▁Have	-2482
▁cont	-2483
▁kuha	-2484
▁kumi	-2485
▁naba	-2486
▁niho	-2487
▁pari	-2488
▁rela	-2489
▁resi	-2490
▁tree	-2491
▁turi	-2492
▁wabi	-2493
▁wine	-2494
andatu	-2495
cyumba	-2496
komeje	-2497
turage	-2498
yanjye	-2499
yubako	-2500
▁agree	-2501
▁bimwe	-2502
▁chair	-2503
▁girls	-2504
▁inclu	-2505
▁phone	-2506
▁prote	-2507
▁reach	-2508
▁ready	-2509
▁small	-2510
▁tried	-2511
▁trust	-2512
byukuri	-2513
dikanya	-2514
hangana	-2515
lthough	-2516
▁Kamali	-2517
▁States	-2518
▁Tuziko	-2519
▁ashaka	-2520
▁bakora	-2521
▁choose	-2522
▁gusubi	-2523
▁ibiryo	-2524
▁police	-2525
tegereje	-2526
▁Nabonye	-2527
▁gutanga	-2528
▁hanyuma	-2529
▁ubwenge	-2530
▁ubufasha	-2531
▁bishoboka	-2532
bt	-2533
asu	-2534
dom	-2535
mal	-2536
mer	-2537
oti	-2538
pid	-2539
twi	-2540
van	-2541
zwi	-2542
▁On	-2543
▁Ye	-2544
▁zu	-2545
blic	-2546
buga	-2547
cucu	-2548
geye	-2549
hana	-2550
huye	-2551
jang	-2552
lisa	-2553
ples	-2554
ramu	-2555
tero	-2556
teye	-2557
yara	-2558
zaza	-2559
▁Aha	-2560
▁Are	-2561
▁Aya	-2562
▁Did	-2563
▁One	-2564
▁col	-2565
▁cou	-2566
▁dou	-2567
▁mom	-2568
▁off	-2569
▁sad	-2570
▁smo	-2571
▁tem	-2572
▁umw	-2573
Igihe	-2574
aring	-2575
byiri	-2576
gaban	-2577
hande	-2578
jyayo	-2579
kwezi	-2580
ranga	-2581
table	-2582
terwa	-2583
twaye	-2584
▁Waba	-2585
▁deli	-2586
▁fact	-2587
▁gari	-2588
▁hour	-2589
▁hurt	-2590
▁maku	-2591
▁mine	-2592
▁post	-2593
▁saha	-2594
▁sell	-2595
▁undi	-2596
▁zose	-2597
guruka	-2598
injira	-2599
jangwe	-2600
magara	-2601
merera	-2602
▁Byaba	-2603
▁bityo	-2604
▁bwose	-2605
▁byawe	-2606
▁haven	-2607
▁itanu	-2608
▁needs	-2609
▁ntebe	-2610
▁seven	-2611
▁sinzi	-2612
▁uruha	-2613
▁using	-2614
▁whole	-2615
▁Ntacyo	-2616
▁bavuga	-2617
▁expect	-2618
▁ibindi	-2619
▁kiriya	-2620
▁ntibya	-2621
▁machine	-2622
▁complete	-2623
▁gushyira	-2624
▁hospital	-2625
▁kwandika	-2626
▁ibishoboka	-2627
▁ibitekerezo	-2628
ff	-2629
abo	-2630
ake	-2631
gin	-2632
iki	-2633
pon	-2634
▁Po	-2635
▁TV	-2636
enty	-2637
huze	-2638
kano	-2639
kaye	-2640
kuye	-2641
mbye	-2642
oked	-2643
puro	-2644
rand	-2645
sozi	-2646
▁apo	-2647
▁ava	-2648
▁cra	-2649
▁mbi	-2650
▁pri	-2651
▁ryi	-2652
▁uni	-2653
byiza	-2654
gambi	-2655
henze	-2656
itira	-2657
mbaba	-2658
olisi	-2659
rench	-2660
renge	-2661
twari	-2662
▁Here	-2663
▁area	-2664
▁full	-2665
▁mama	-2666
▁seem	-2667
▁send	-2668
▁sold	-2669
▁tere	-2670
hagaze	-2671
hariye	-2672
mereye	-2673
rishya	-2674
tekano	-2675
vukire	-2676
▁Jesus	-2677
▁Kandi	-2678
▁hanze	-2679
▁heart	-2680
▁jambo	-2681
▁lived	-2682
▁lives	-2683
▁ndimo	-2684
▁nshya	-2685
▁oppor	-2686
▁ryose	-2687
▁sense	-2688
▁sound	-2689
dasobwa	-2690
tambara	-2691
▁French	-2692
▁Wigeze	-2693
▁future	-2694
▁kugera	-2695
▁progra	-2696
▁stupid	-2697
▁surpri	-2698
▁ukunda	-2699
garagaza	-2700
gerageje	-2701
▁amasaha	-2702
▁bwanjye	-2703
▁continu	-2704
▁himself	-2705
▁realize	-2706
▁stopped	-2707
▁ukeneye	-2708
▁umurimo	-2709
▁written	-2710
▁Domitira	-2711
▁gukemura	-2712
▁interest	-2713
▁ndashaka	-2714
▁umukobwa	-2715
▁nyamuneka	-2716
▁byumvikana	-2717
▁interested	-2718
▁Birashoboka	-2719
We	-2720
▁V	-2721
con	-2722
cri	-2723
esu	-2724
ges	-2725
ire	-2726
ito	-2727
oma	-2728
ppe	-2729
▁Ga	-2730
▁Um	-2731
▁ub	-2732
ated	-2733
cifi	-2734
cked	-2735
come	-2736
ensi	-2737
ents	-2738
ghts	-2739
hawe	-2740
hini	-2741
ings	-2742
kaba	-2743
kemu	-2744
kiza	-2745
mira	-2746
muna	-2747
ndwi	-2748
reza	-2749
tabi	-2750
tare	-2751
uran	-2752
work	-2753
wuka	-2754
yije	-2755
▁add	-2756
▁amu	-2757
▁asa	-2758
▁guy	-2759
▁hot	-2760
▁ika	-2761
▁ine	-2762
▁six	-2763
▁suc	-2764
▁val	-2765
bandi	-2766
banza	-2767
dumva	-2768
hyira	-2769
ister	-2770
mbuye	-2771
ments	-2772
ponsi	-2773
rongo	-2774
tinze	-2775
▁Niyo	-2776
▁bazi	-2777
▁bene	-2778
▁cost	-2779
▁cumi	-2780
▁dese	-2781
▁fish	-2782
▁gace	-2783
▁lake	-2784
▁less	-2785
▁paid	-2786
▁pain	-2787
▁poor	-2788
▁rero	-2789
▁rest	-2790
▁sina	-2791
▁star	-2792
▁ways	-2793
▁wowe	-2794
▁yabi	-2795
▁yubu	-2796
▁zawe	-2797
girira	-2798
hagari	-2799
hisemo	-2800
rekeye	-2801
taramo	-2802
▁Chris	-2803
▁Maybe	-2804
▁human	-2805
▁itabi	-2806
▁least	-2807
▁loved	-2808
▁natwe	-2809
▁numva	-2810
▁numwe	-2811
▁resta	-2812
▁yours	-2813
bagirwe	-2814
curuzwa	-2815
hinduka	-2816
myabiri	-2817
veryone	-2818
▁doctor	-2819
▁during	-2820
▁eating	-2821
▁gifite	-2822
▁kureka	-2823
▁window	-2824
▁wonder	-2825
koreshwa	-2826
yamakuru	-2827
▁bakunda	-2828
▁igitabo	-2829
▁minutes	-2830
▁myinshi	-2831
▁nabonye	-2832
▁nkeneye	-2833
▁uruhare	-2834
isobanuro	-2835
▁Ntakintu	-2836
▁byagenze	-2837
▁kubivuga	-2838
▁question	-2839
▁ubutumwa	-2840
▁mudasobwa	-2841
▁questions	-2842
▁yashakaga	-2843
▁udashobora	-2844
▁Turashobora	-2845
▁makumyabiri	-2846
my	-2847
zy	-2848
ace	-2849
als	-2850
eno	-2851
ged	-2852
gor	-2853
hur	-2854
lls	-2855
nyi	-2856
ody	-2857
orn	-2858
ste	-2859
vil	-2860
▁ge	-2861
▁ty	-2862
▁va	-2863
boko	-2864
fero	-2865
fter	-2866
haje	-2867
hoto	-2868
kani	-2869
kuba	-2870
kund	-2871
mama	-2872
rebe	-2873
taba	-2874
teka	-2875
teze	-2876
▁bel	-2877
▁bro	-2878
▁gis	-2879
▁pra	-2880
▁sou	-2881
▁sum	-2882
▁tri	-2883
kungu	-2884
mbaye	-2885
yungu	-2886
▁Many	-2887
▁Yesu	-2888
▁acti	-2889
▁comp	-2890
▁fast	-2891
▁gene	-2892
▁hair	-2893
▁hate	-2894
▁icyi	-2895
▁inzo	-2896
▁kubu	-2897
▁namu	-2898
▁popu	-2899
▁turn	-2900
▁ubwi	-2901
anduku	-2902
babazi	-2903
bahiro	-2904
ensive	-2905
gihugu	-2906
hereza	-2907
hobozi	-2908
ithout	-2909
▁amazi	-2910
▁azaba	-2911
▁enjoy	-2912
▁ifite	-2913
▁inter	-2914
▁kubwi	-2915
▁ntuza	-2916
▁often	-2917
▁photo	-2918
▁store	-2919
▁twese	-2920
funguro	-2921
gufasha	-2922
kubwira	-2923
rangira	-2924
▁Nkunda	-2925
▁Sinari	-2926
▁Yavuze	-2927
▁advice	-2928
▁buzima	-2929
▁chance	-2930
▁gukina	-2931
▁months	-2932
▁muribi	-2933
▁parike	-2934
▁ubundi	-2935
dirishya	-2936
karasira	-2937
sezerano	-2938
▁agaciro	-2939
▁igihugu	-2940
▁reading	-2941
▁reasons	-2942
▁support	-2943
▁uhagije	-2944
▁umukoro	-2945
▁usually	-2946
hanganira	-2947
▁Buyapani	-2948
▁Everyone	-2949
▁kavukire	-2950
▁responsi	-2951
▁thinking	-2952
hishikajwe	-2953
▁delicious	-2954
▁expensive	-2955
▁kwishyura	-2956
▁restauran	-2957
▁inshingano	-2958
▁Ndatekereza	-2959
▁abanyeshuri	-2960
▁birashoboka	-2961
▁uburenganzira	-2962
Na	-2963
▁?	-2964
?""	-2965
cti	-2966
hyi	-2967
omo	-2968
tel	-2969
▁At	-2970
▁Ho	-2971
▁Yu	-2972
▁vo	-2973
."""	-2974
That	-2975
biko	-2976
cuza	-2977
duka	-2978
enda	-2979
gari	-2980
giro	-2981
guma	-2982
ishe	-2983
kozi	-2984
land	-2985
logy	-2986
pend	-2987
piri	-2988
roup	-2989
ruru	-2990
shan	-2991
tozo	-2992
▁Ame	-2993
▁Izo	-2994
▁ali	-2995
▁ani	-2996
▁bwu	-2997
▁dre	-2998
▁gre	-2999
▁iru	-3000
▁itu	-3001
▁izo	-3002
▁qui	-3003
▁red	-3004
▁sme	-3005
▁swe	-3006
▁tre	-3007
▁yet	-3008
ating	-3009
ation	-3010
hurch	-3011
kandi	-3012
tinda	-3013
yamba	-3014
▁Buri	-3015
▁accu	-3016
▁appe	-3017
▁babo	-3018
▁biro	-3019
▁biru	-3020
▁body	-3021
▁fall	-3022
▁grow	-3023
▁hasi	-3024
▁head	-3025
▁kose	-3026
▁near	-3027
▁nimu	-3028
▁once	-3029
▁side	-3030
▁sini	-3031
▁yaje	-3032
▁ziri	-3033
babaje	-3034
ganiro	-3035
hushan	-3036
mpamvu	-3037
ruhuko	-3038
sanzwe	-3039
shinja	-3040
shyire	-3041
zabaho	-3042
▁Avuga	-3043
▁Ufite	-3044
▁agira	-3045
▁atatu	-3046
▁bwacu	-3047
▁byacu	-3048
▁emplo	-3049
▁enter	-3050
▁grand	-3051
▁group	-3052
▁gushi	-3053
▁ibiri	-3054
▁ijoro	-3055
▁ikora	-3056
▁isoko	-3057
▁mushi	-3058
▁nzira	-3059
▁short	-3060
▁yinzu	-3061
ountain	-3062
ranyama	-3063
ryoshye	-3064
▁Ikintu	-3065
▁Pacifi	-3066
▁arwaye	-3067
▁guhura	-3068
▁killed	-3069
▁leader	-3070
▁musore	-3071
▁native	-3072
▁noneho	-3073
▁second	-3074
▁travel	-3075
▁twenty	-3076
▁umunsi	-3077
▁zanjye	-3078
ctionary	-3079
menyesha	-3080
▁Nothing	-3081
▁careful	-3082
▁concert	-3083
▁contain	-3084
▁gukorwa	-3085
▁gutwara	-3086
▁kingana	-3087
▁learned	-3088
▁muhanda	-3089
▁mwarimu	-3090
▁program	-3091
▁writing	-3092
▁Ntugomba	-3093
▁icyemezo	-3094
▁imbabazi	-3095
▁resitora	-3096
▁terefone	-3097
shimishije	-3098
▁utekereza	-3099
▁dictionary	-3100
ranyamagambo	-3101
▁development	-3102
Be	-3103
It	-3104
cc	-3105
nt	-3106
▁1	-3107
.""	-3108
Aba	-3109
ese	-3110
fun	-3111
hon	-3112
pes	-3113
sel	-3114
sic	-3115
top	-3116
tsa	-3117
ura	-3118
yon	-3119
▁Si	-3120
enti	-3121
enzi	-3122
gure	-3123
haye	-3124
insi	-3125
keje	-3126
raba	-3127
sand	-3128
shat	-3129
tara	-3130
vent	-3131
vern	-3132
vuge	-3133
▁Uzi	-3134
▁ago	-3135
▁bag	-3136
▁bar	-3137
▁bom	-3138
▁hon	-3139
▁ind	-3140
▁pur	-3141
▁reg	-3142
▁ver	-3143
▁whe	-3144
There	-3145
ached	-3146
aniwe	-3147
bintu	-3148
ences	-3149
isten	-3150
rimba	-3151
shije	-3152
▁Data	-3153
▁Gusa	-3154
▁Lord	-3155
▁boat	-3156
▁easi	-3157
▁gusi	-3158
▁high	-3159
▁impo	-3160
▁inda	-3161
▁milk	-3162
▁reba	-3163
▁wose	-3164
▁yamu	-3165
▁zira	-3166
byumva	-3167
byutse	-3168
▁Ahari	-3169
▁Hirwa	-3170
▁Those	-3171
▁abona	-3172
▁admit	-3173
▁ataza	-3174
▁guess	-3175
▁izuba	-3176
▁kindi	-3177
Without	-3178
cessary	-3179
ishyuye	-3180
shoboye	-3181
tention	-3182
▁People	-3183
▁bibazo	-3184
▁gihugu	-3185
▁health	-3186
▁heaven	-3187
▁iminsi	-3188
▁kamali	-3189
▁mukuru	-3190
▁rwanda	-3191
▁sister	-3192
▁sitasi	-3193
▁speake	-3194
▁umwami	-3195
▁yigeze	-3196
andukani	-3197
tegereza	-3198
▁Amerika	-3199
▁akamaro	-3200
▁byanjye	-3201
▁changed	-3202
▁kujyana	-3203
▁kurusha	-3204
▁muhungu	-3205
▁mushiki	-3206
▁ukomeye	-3207
▁umukino	-3208
▁weather	-3209
▁Kamaliza	-3210
▁football	-3211
▁gikomeye	-3212
▁homework	-3213
▁kirekire	-3214
▁kwinjira	-3215
▁mountain	-3216
▁opportun	-3217
▁perezida	-3218
▁urukundo	-3219
▁yibeshye	-3220
▁yourself	-3221
▁Nishimiye	-3222
▁icyumweru	-3223
▁igisubizo	-3224
▁kugufasha	-3225
▁mugitondo	-3226
▁sometimes	-3227
▁umutekano	-3228
▁guhagarika	-3229
▁restaurant	-3230
ef	-3231
Nta	-3232
cei	-3233
cep	-3234
des	-3235
mwi	-3236
oud	-3237
son	-3238
wed	-3239
zen	-3240
▁Je	-3241
▁Le	-3242
▁Mi	-3243
▁Ne	-3244
▁Su	-3245
▁gl	-3246
▁ju	-3247
What	-3248
ased	-3249
buja	-3250
chno	-3251
ckly	-3252
days	-3253
dora	-3254
gero	-3255
hate	-3256
ined	-3257
jiye	-3258
moka	-3259
more	-3260
size	-3261
soho	-3262
soma	-3263
tani	-3264
tatu	-3265
tike	-3266
wira	-3267
yura	-3268
▁Mon	-3269
▁ene	-3270
▁hat	-3271
▁hor	-3272
▁med	-3273
▁set	-3274
▁ste	-3275
▁ute	-3276
bably	-3277
conom	-3278
humbi	-3279
rison	-3280
tonze	-3281
tungu	-3282
ukara	-3283
vince	-3284
where	-3285
▁Give	-3286
▁Icya	-3287
▁Ndas	-3288
▁Sina	-3289
▁beha	-3290
▁deal	-3291
▁died	-3292
▁disa	-3293
▁dise	-3294
▁docu	-3295
▁doll	-3296
▁fire	-3297
▁gice	-3298
▁lose	-3299
▁mili	-3300
▁news	-3301
▁prom	-3302
▁redu	-3303
▁remo	-3304
▁rent	-3305
▁sand	-3306
▁umwi	-3307
▁walk	-3308
bereho	-3309
bereye	-3310
geraho	-3311
merewe	-3312
selves	-3313
shying	-3314
zamini	-3315
ziriye	-3316
▁Ariko	-3317
▁Ntuka	-3318
▁agiye	-3319
▁aribi	-3320
▁blame	-3321
▁built	-3322
▁colle	-3323
▁compu	-3324
▁deser	-3325
▁funny	-3326
▁igare	-3327
▁ijana	-3328
▁image	-3329
▁kubye	-3330
▁light	-3331
▁nyina	-3332
▁respe	-3333
▁utazi	-3334
▁waste	-3335
▁white	-3336
ishijwe	-3337
ringiro	-3338
tangaza	-3339
▁Gasabo	-3340
▁Ndumva	-3341
▁Wavuze	-3342
▁bitabo	-3343
▁church	-3344
▁coming	-3345
▁econom	-3346
▁inkuru	-3347
▁kigali	-3348
▁kubana	-3349
▁looked	-3350
▁makuru	-3351
▁munini	-3352
▁mwanya	-3353
▁myenda	-3354
▁normal	-3355
▁raised	-3356
▁ukuntu	-3357
▁uretse	-3358
▁yakora	-3359
Although	-3360
cyumweru	-3361
hagarara	-3362
kurikira	-3363
▁Ndakeka	-3364
▁Numvise	-3365
▁Someone	-3366
▁abagore	-3367
▁anymore	-3368
▁bangahe	-3369
▁byukuri	-3370
▁disease	-3371
▁flowers	-3372
▁getting	-3373
▁ibirori	-3374
▁kubwira	-3375
▁magambo	-3376
▁muganga	-3377
▁mukobwa	-3378
▁nteruro	-3379
▁refused	-3380
▁station	-3381
▁umukire	-3382
▁ururimi	-3383
▁Ushobora	-3384
▁ifunguro	-3385
▁mistakes	-3386
▁mucyumba	-3387
▁nyandiko	-3388
▁thousand	-3389
▁umuhungu	-3390
▁urashaka	-3391
andukaniro	-3392
cyongereza	-3393
▁bishobora	-3394
▁ntiyigeze	-3395
▁president	-3396
▁ubushobozi	-3397
▁Uratekereza	-3398
▁ibisobanuro	-3399
▁nashoboraga	-3400
▁opportunity	-3401
▁kwihanganira	-3402
▁responsibili	-3403
gw	-3404
bra	-3405
gue	-3406
ila	-3407
lad	-3408
ned	-3409
ney	-3410
rts	-3411
swa	-3412
ywe	-3413
▁ob	-3414
▁ve	-3415
band	-3416
ched	-3417
ffee	-3418
gora	-3419
isho	-3420
lice	-3421
muga	-3422
pose	-3423
rera	-3424
rote	-3425
saku	-3426
taro	-3427
they	-3428
vior	-3429
yana	-3430
▁Bob	-3431
▁Ngu	-3432
▁ame	-3433
▁dru	-3434
▁iby	-3435
▁ill	-3436
▁nke	-3437
▁pas	-3438
▁pun	-3439
▁tax	-3440
▁ter	-3441
▁uba	-3442
▁wis	-3443
dende	-3444
inion	-3445
rebye	-3446
sange	-3447
stead	-3448
vandi	-3449
versi	-3450
▁Biza	-3451
▁Haba	-3452
▁Lond	-3453
▁Mari	-3454
▁Yari	-3455
▁aran	-3456
▁bacu	-3457
▁bawe	-3458
▁born	-3459
▁boys	-3460
▁conf	-3461
▁evid	-3462
▁fine	-3463
▁glad	-3464
▁goes	-3465
▁gone	-3466
▁kuma	-3467
▁meat	-3468
▁muti	-3469
▁nara	-3470
▁prin	-3471
▁resu	-3472
▁riri	-3473
▁tall	-3474
▁tran	-3475
▁wacu	-3476
boneka	-3477
cially	-3478
herezo	-3479
korana	-3480
mbwira	-3481
tabira	-3482
terere	-3483
▁Nzaba	-3484
▁above	-3485
▁atazi	-3486
▁azaza	-3487
▁begin	-3488
▁doubt	-3489
▁faith	-3490
▁hands	-3491
▁hotel	-3492
▁ibihe	-3493
▁igice	-3494
▁kidas	-3495
▁kwica	-3496
▁music	-3497
▁peace	-3498
▁river	-3499
▁spend	-3500
▁spent	-3501
▁twari	-3502
▁uruhu	-3503
buhanga	-3504
ishyira	-3505
kundaga	-3506
shyitsi	-3507
▁Abanya	-3508
▁Rukara	-3509
▁Umwami	-3510
▁abanya	-3511
▁arrive	-3512
▁batatu	-3513
▁dukora	-3514
▁dukore	-3515
▁ebyiri	-3516
▁gatatu	-3517
▁kagame	-3518
▁karamu	-3519
▁listen	-3520
▁mulisa	-3521
▁nizera	-3522
▁report	-3523
▁umutwe	-3524
▁umwaka	-3525
dasanzwe	-3526
shyushye	-3527
▁Rwandan	-3528
▁ahagije	-3529
▁bikunze	-3530
▁hashize	-3531
▁imyenda	-3532
▁kuryama	-3533
▁opinion	-3534
▁outside	-3535
▁purpose	-3536
▁quickly	-3537
▁request	-3538
▁running	-3539
▁rusange	-3540
▁ryakeye	-3541
▁umupira	-3542
isobanura	-3543
terambere	-3544
▁bikomeye	-3545
▁computer	-3546
▁evidence	-3547
▁muryango	-3548
▁sitasiyo	-3549
▁amategeko	-3550
▁indirimbo	-3551
▁necessary	-3552
▁yakubwiye	-3553
▁impossible	-3554
▁kugerageza	-3555
▁interesting	-3556
▁bishimishije	-3557
▁itandukaniro	-3558
To	-3559
Ye	-3560
bl	-3561
mw	-3562
sk	-3563
Ntu	-3564
cal	-3565
ers	-3566
eza	-3567
isu	-3568
ria	-3569
rty	-3570
ult	-3571
▁Ex	-3572
▁Nd	-3573
▁Ti	-3574
▁Yo	-3575
▁ce	-3576
Even	-3577
abye	-3578
ange	-3579
beho	-3580
ceed	-3581
cent	-3582
enny	-3583
fati	-3584
hank	-3585
hera	-3586
hira	-3587
hova	-3588
huta	-3589
inda	-3590
inga	-3591
ingi	-3592
kuko	-3593
mbwe	-3594
meye	-3595
raso	-3596
ruko	-3597
rusa	-3598
seka	-3599
spel	-3600
tics	-3601
void	-3602
ziki	-3603
ziza	-3604
▁Abo	-3605
▁adv	-3606
▁age	-3607
▁blo	-3608
▁cut	-3609
▁den	-3610
▁gar	-3611
▁key	-3612
▁mba	-3613
▁mes	-3614
▁mpu	-3615
▁rwi	-3616
▁ryu	-3617
▁tic	-3618
▁uti	-3619
▁utu	-3620
▁wed	-3621
Since	-3622
cient	-3623
eshyi	-3624
fashi	-3625
ganza	-3626
gwino	-3627
hamwe	-3628
hamya	-3629
kisha	-3630
pirit	-3631
ready	-3632
rinda	-3633
ticle	-3634
tures	-3635
vugwa	-3636
▁Hasi	-3637
▁Niki	-3638
▁Wari	-3639
▁Your	-3640
▁baby	-3641
▁baka	-3642
▁bati	-3643
▁bura	-3644
▁dore	-3645
▁evil	-3646
▁eyes	-3647
▁gisi	-3648
▁gusu	-3649
▁gutu	-3650
▁hung	-3651
▁imbo	-3652
▁inko	-3653
▁kuyi	-3654
▁nabo	-3655
▁nigi	-3656
▁past	-3657
▁pati	-3658
▁rugo	-3659
▁trou	-3660
▁wake	-3661
▁wama	-3662
giriye	-3663
gombye	-3664
ilable	-3665
leased	-3666
mamaza	-3667
panuka	-3668
polisi	-3669
ressed	-3670
rikare	-3671
tation	-3672
tayeho	-3673
vision	-3674
zemera	-3675
▁Bwira	-3676
▁Ntawe	-3677
▁Nubwo	-3678
▁Thank	-3679
▁ahuze	-3680
▁amaso	-3681
▁among	-3682
▁avoid	-3683
▁compe	-3684
▁crazy	-3685
▁cyubu	-3686
▁dance	-3687
▁daugh	-3688
▁dream	-3689
▁eaten	-3690
▁isoni	-3691
▁kanya	-3692
▁kevin	-3693
▁kubyi	-3694
▁kwisi	-3695
▁laugh	-3696
▁milli	-3697
▁ryawe	-3698
▁utaza	-3699
▁value	-3700
▁wrote	-3701
bwiriza	-3702
byiruko	-3703
gabanya	-3704
gishije	-3705
gurisha	-3706
hatever	-3707
rangiye	-3708
tegetsi	-3709
▁asleep	-3710
▁become	-3711
▁behind	-3712
▁bigoye	-3713
▁biteye	-3714
▁bituma	-3715
▁borrow	-3716
▁coffee	-3717
▁govern	-3718
▁gusaba	-3719
▁gutaha	-3720
▁ibyiza	-3721
▁igomba	-3722
▁kenshi	-3723
▁kuguma	-3724
▁nkwiye	-3725
▁public	-3726
▁raporo	-3727
▁regret	-3728
▁summer	-3729
▁wigeze	-3730
▁yagize	-3731
anditswe	-3732
chnology	-3733
ganiriye	-3734
muryango	-3735
vandimwe	-3736
▁Ikibazo	-3737
▁against	-3738
▁already	-3739
▁amerika	-3740
▁evening	-3741
▁gufasha	-3742
▁indwara	-3743
▁kwibuka	-3744
▁meaning	-3745
▁nabantu	-3746
▁ngofero	-3747
▁nyubako	-3748
▁rwanjye	-3749
▁sitting	-3750
▁trouble	-3751
▁wedding	-3752
mbabarire	-3753
▁Nifuzaga	-3754
▁arashaka	-3755
▁cyatumye	-3756
▁ibikorwa	-3757
▁icyifuzo	-3758
▁ishobora	-3759
▁murumuna	-3760
▁mushinga	-3761
▁mwandiko	-3762
▁nikibazo	-3763
▁ubishaka	-3764
▁umugambi	-3765
▁uyumunsi	-3766
▁yabikoze	-3767
▁Nashakaga	-3768
▁according	-3769
▁attention	-3770
▁available	-3771
▁guhangana	-3772
▁inyandiko	-3773
▁njyenyine	-3774
▁umuyobozi	-3775
▁ibikoresho	-3776
▁igifaransa	-3777
▁nimugoroba	-3778
Tu	-3779
dy	-3780
fy	-3781
ps	-3782
vy	-3783
cyi	-3784
ety	-3785
fit	-3786
igh	-3787
lia	-3788
mpi	-3789
tor	-3790
▁Te	-3791
▁iP	-3792
▁iz	-3793
Muri	-3794
gine	-3795
habu	-3796
hati	-3797
hatu	-3798
hoze	-3799
itra	-3800
itse	-3801
kije	-3802
lity	-3803
lled	-3804
lved	-3805
mewe	-3806
ming	-3807
rayi	-3808
rent	-3809
rity	-3810
ross	-3811
shim	-3812
teza	-3813
tici	-3814
titu	-3815
tiye	-3816
toki	-3817
umva	-3818
vizi	-3819
yuze	-3820
zine	-3821
zuro	-3822
▁But	-3823
▁Min	-3824
▁Nan	-3825
▁Nga	-3826
▁air	-3827
▁aru	-3828
▁box	-3829
▁hus	-3830
▁ida	-3831
▁ish	-3832
▁lon	-3833
▁mou	-3834
▁mpa	-3835
▁mum	-3836
▁mwe	-3837
▁rwo	-3838
▁tie	-3839
After	-3840
cyari	-3841
ganye	-3842
ishya	-3843
kanda	-3844
kombe	-3845
mbers	-3846
menyi	-3847
mvura	-3848
quake	-3849
ranya	-3850
renza	-3851
rices	-3852
tware	-3853
▁King	-3854
▁Kuri	-3855
▁baga	-3856
▁bicy	-3857
▁bida	-3858
▁bire	-3859
▁cake	-3860
▁cars	-3861
▁cons	-3862
▁cook	-3863
▁dela	-3864
▁disc	-3865
▁fear	-3866
▁giti	-3867
▁gold	-3868
▁haba	-3869
▁half	-3870
▁heza	-3871
▁inka	-3872
▁land	-3873
▁lead	-3874
▁line	-3875
▁mata	-3876
▁miss	-3877
▁niwe	-3878
▁pome	-3879
▁tuzi	-3880
▁wear	-3881
▁zabo	-3882
ciples	-3883
ctions	-3884
ishimo	-3885
kamaro	-3886
kikije	-3887
kinnyi	-3888
kuramo	-3889
rising	-3890
shyuhe	-3891
vities	-3892
viziyo	-3893
▁abiri	-3894
▁accep	-3895
▁ahora	-3896
▁appro	-3897
▁bamwe	-3898
▁biryo	-3899
▁bwoko	-3900
▁class	-3901
▁corre	-3902
▁cyacu	-3903
▁exist	-3904
▁fault	-3905
▁gusen	-3906
▁ibiki	-3907
▁ikosa	-3908
▁messa	-3909
▁might	-3910
▁mumas	-3911
▁mumin	-3912
▁ninde	-3913
▁ntizi	-3914
▁requi	-3915
▁ryiza	-3916
▁state	-3917
▁trans	-3918
▁trees	-3919
▁ubusa	-3920
▁ugere	-3921
▁ugiye	-3922
▁uzaba	-3923
fungura	-3924
kundana	-3925
twarire	-3926
▁angahe	-3927
▁bagiye	-3928
▁baruwa	-3929
▁belong	-3930
▁bibiri	-3931
▁camera	-3932
▁failed	-3933
▁famili	-3934
▁giving	-3935
▁gospel	-3936
▁gusura	-3937
▁hungry	-3938
▁ikozwe	-3939
▁intego	-3940
▁ishaje	-3941
▁kamera	-3942
▁mugore	-3943
▁nkicyo	-3944
▁places	-3945
▁secret	-3946
▁wavuze	-3947
▁wisdom	-3948
▁yashyi	-3949
ducation	-3950
ganiraho	-3951
ishimira	-3952
tionship	-3953
yumvisha	-3954
▁Domitra	-3955
▁Ntugire	-3956
▁address	-3957
▁akeneye	-3958
▁bikorwa	-3959
▁dollars	-3960
▁gikorwa	-3961
▁husband	-3962
▁kubyara	-3963
▁mashini	-3964
▁mention	-3965
▁mwinshi	-3966
▁nikintu	-3967
▁playing	-3968
▁popular	-3969
▁ryanjye	-3970
▁started	-3971
▁succeed	-3972
▁ubikora	-3973
▁whether	-3974
▁worried	-3975
▁yampaye	-3976
▁Hasigaye	-3977
▁Japanese	-3978
▁Perezida	-3979
▁adashaka	-3980
▁daughter	-3981
▁gukorera	-3982
▁ibirenze	-3983
▁ingaruka	-3984
▁kukubona	-3985
▁kumbwira	-3986
▁mubuzima	-3987
▁ntamuntu	-3988
▁ntashaka	-3989
▁sosiyete	-3990
▁surprise	-3991
▁umusatsi	-3992
▁universi	-3993
▁uramutse	-3994
▁Nakubwiye	-3995
▁guhindura	-3996
▁happening	-3997
▁idirishya	-3998
▁mubyukuri	-3999
▁Dutekereza	-4000
▁bigaragara	-4001
▁earthquake	-4002
▁gitekerezo	-4003
▁government	-4004
▁yashoboraga	-4005
▁ntibishobora	-4006
▁nkoranyamagambo	-4007
!"	-4008
ap	-4009
ky	-4010
mb	-4011
Yes	-4012
gne	-4013
kon	-4014
lau	-4015
low	-4016
mis	-4017
nis	-4018
nya	-4019
ost	-4020
ota	-4021
set	-4022
tur	-4023
uro	-4024
uty	-4025
vol	-4026
▁Af	-4027
▁Ca	-4028
▁Me	-4029
▁Ro	-4030
▁Se	-4031
bano	-4032
bara	-4033
came	-4034
cles	-4035
cuse	-4036
dage	-4037
damu	-4038
dden	-4039
dege	-4040
dere	-4041
ders	-4042
duko	-4043
enya	-4044
fied	-4045
gami	-4046
hanu	-4047
hara	-4048
hoka	-4049
ists	-4050
kaza	-4051
know	-4052
mous	-4053
mure	-4054
oter	-4055
reye	-4056
ruva	-4057
tanu	-4058
tiki	-4059
tory	-4060
usti	-4061
vity	-4062
vugi	-4063
yari	-4064
▁Ger	-4065
▁Imi	-4066
▁Our	-4067
▁bat	-4068
▁cow	-4069
▁cry	-4070
▁cul	-4071
▁def	-4072
▁fif	-4073
▁fly	-4074
▁god	-4075
▁ibu	-4076
▁jya	-4077
▁pot	-4078
▁sea	-4079
▁ski	-4080
▁tas	-4081
▁usi	-4082
▁zis	-4083
anira	-4084
byara	-4085
canga	-4086
fatwa	-4087
genzu	-4088
gnant	-4089
hunga	-4090
inota	-4091
ither	-4092
iting	-4093
kimbi	-4094
kimwe	-4095
kingu	-4096
known	-4097
maswa	-4098
mbura	-4099
ourse	-4100
rease	-4101
shake	-4102
yanga	-4103
yanja	-4104
▁Pres	-4105
▁babi	-4106
▁bake	-4107
▁bitu	-4108
▁both	-4109
▁brea	-4110
▁brou	-4111
▁cust	-4112
▁data	-4113
▁face	-4114
▁gisa	-4115
▁gucu	-4116
▁hadn	-4117
▁hall	-4118
▁insu	-4119
▁kids	-4120
▁kutu	-4121
▁maga	-4122
▁mumi	-4123
▁ones	-4124
▁pass	-4125
▁posi	-4126
▁rema	-4127
▁vino	-4128
▁wabo	-4129
▁wood	-4130
▁wumu	-4131
▁yavu	-4132
▁yibi	-4133
dorari	-4134
huriye	-4135
logize	-4136
ration	-4137
ruvati	-4138
shonje	-4139
sobanu	-4140
subiza	-4141
▁Afite	-4142
▁Kevin	-4143
▁Ntiwi	-4144
▁Nyuma	-4145
▁ameze	-4146
▁blood	-4147
▁bread	-4148
▁bwabo	-4149
▁bying	-4150
▁carry	-4151
▁color	-4152
▁commu	-4153
▁eight	-4154
▁ideas	-4155
▁ijuru	-4156
▁ikihe	-4157
▁imana	-4158
▁marry	-4159
▁mpari	-4160
▁nibwo	-4161
▁nicyo	-4162
▁ntitu	-4163
▁nzaba	-4164
▁plans	-4165
▁recei	-4166
▁smell	-4167
▁smoke	-4168
▁speed	-4169
▁studi	-4170
▁tells	-4171
▁umwan	-4172
▁utari	-4173
▁uzabi	-4174
▁yitwa	-4175
sengero	-4176
tsinzwe	-4177
▁Bavuga	-4178
▁German	-4179
▁Monday	-4180
▁banjye	-4181
▁became	-4182
▁bigiye	-4183
▁bridge	-4184
▁garden	-4185
▁hoteri	-4186
▁impano	-4187
▁kumeza	-4188
▁kurira	-4189
▁living	-4190
▁longer	-4191
▁moment	-4192
▁mukino	-4193
▁murimo	-4194
▁nakoze	-4195
▁nemera	-4196
▁nifuza	-4197
▁prices	-4198
▁simple	-4199
▁tennis	-4200
▁thinks	-4201
▁ubwato	-4202
▁ukundi	-4203
▁ukwezi	-4204
▁unable	-4205
▁wakora	-4206
▁yahawe	-4207
▁zahabu	-4208
arangije	-4209
pecially	-4210
▁Hagomba	-4211
▁Icyampa	-4212
▁Ndabaza	-4213
▁abagabo	-4214
▁ability	-4215
▁adafite	-4216
▁arrived	-4217
▁bagenzi	-4218
▁bikwiye	-4219
▁brought	-4220
▁discuss	-4221
▁iminota	-4222
▁indabyo	-4223
▁inyungu	-4224
▁kubwibi	-4225
▁kurenza	-4226
▁kwemera	-4227
▁message	-4228
▁missing	-4229
▁numvise	-4230
▁planned	-4231
▁present	-4232
▁rwinshi	-4233
▁shooter	-4234
▁telling	-4235
▁umusore	-4236
▁umuyaga	-4237
kimbirane	-4238
rashobora	-4239
▁convince	-4240
▁gukuriki	-4241
▁iruhande	-4242
▁karuvati	-4243
▁kuberako	-4244
▁kuganira	-4245
▁kuhagera	-4246
▁miliyoni	-4247
▁mugoroba	-4248
▁nabikora	-4249
▁ntibyari	-4250
▁prepared	-4251
▁probably	-4252
▁returned	-4253
▁standing	-4254
▁ubukungu	-4255
▁umunyama	-4256
▁yanditse	-4257
banyeshuri	-4258
▁President	-4259
▁Something	-4260
▁Turashaka	-4261
▁continued	-4262
▁languages	-4263
▁sentences	-4264
▁umushinga	-4265
▁activities	-4266
▁adashobora	-4267
▁gutegereza	-4268
▁kimenyetso	-4269
▁kutabikora	-4270
▁ibyiringiro	-4271
▁relationship	-4272
ia	-4273
Acc	-4274
Uyu	-4275
che	-4276
cky	-4277
com	-4278
erc	-4279
fer	-4280
got	-4281
hie	-4282
ita	-4283
its	-4284
las	-4285
lue	-4286
ngo	-4287
ood	-4288
rry	-4289
sta	-4290
yce	-4291
zed	-4292
▁ir	-4293
▁lu	-4294
Ibyo	-4295
anwa	-4296
arch	-4297
cide	-4298
dugu	-4299
essi	-4300
gaho	-4301
gane	-4302
gend	-4303
giri	-4304
gufi	-4305
gwan	-4306
huza	-4307
ided	-4308
ighb	-4309
inyo	-4310
kari	-4311
kiko	-4312
kode	-4313
kuze	-4314
mith	-4315
naba	-4316
poke	-4317
reet	-4318
rick	-4319
room	-4320
saga	-4321
stru	-4322
taho	-4323
tary	-4324
tian	-4325
vayi	-4326
vuko	-4327
yeri	-4328
zeye	-4329
zing	-4330
▁Ing	-4331
▁Pro	-4332
▁Sha	-4333
▁Twe	-4334
▁atu	-4335
▁cal	-4336
▁cur	-4337
▁fil	-4338
▁flu	-4339
▁fru	-4340
▁isn	-4341
▁myi	-4342
▁obe	-4343
▁ref	-4344
▁tea	-4345
▁wal	-4346
Sinzi	-4347
brary	-4348
dered	-4349
ently	-4350
funze	-4351
gamba	-4352
ganzu	-4353
genge	-4354
girwa	-4355
hango	-4356
hinda	-4357
kwira	-4358
laude	-4359
ledge	-4360
phone	-4361
rirwa	-4362
rukan	-4363
rwaho	-4364
rwayi	-4365
tinya	-4366
▁Jack	-4367
▁Jane	-4368
▁Kuba	-4369
▁Mark	-4370
▁Nuko	-4371
▁asin	-4372
▁bada	-4373
▁bato	-4374
▁beer	-4375
▁beza	-4376
▁blue	-4377
▁buto	-4378
▁coat	-4379
▁dark	-4380
▁dire	-4381
▁felt	-4382
▁free	-4383
▁guys	-4384
▁heat	-4385
▁indu	-4386
▁ingu	-4387
▁kudu	-4388
▁kuzi	-4389
▁lend	-4390
▁meze	-4391
▁papa	-4392
▁para	-4393
▁quit	-4394
▁reka	-4395
▁reli	-4396
▁rese	-4397
▁reso	-4398
▁risk	-4399
▁ruzi	-4400
▁save	-4401
▁snow	-4402
▁team	-4403
▁type	-4404
▁umpa	-4405
▁urwo	-4406
▁uses	-4407
▁visi	-4408
▁woke	-4409
▁yama	-4410
angije	-4411
dugudu	-4412
ential	-4413
gishwa	-4414
guhaye	-4415
gukora	-4416
kibazo	-4417
kubita	-4418
rakara	-4419
rusale	-4420
sation	-4421
shatsi	-4422
sitani	-4423
ustice	-4424
▁Joyce	-4425
▁Smith	-4426
▁achie	-4427
▁alive	-4428
▁apost	-4429
▁arimo	-4430
▁atuye	-4431
▁based	-4432
▁began	-4433
▁broke	-4434
▁bumwe	-4435
▁bwibi	-4436
▁chose	-4437
▁event	-4438
▁fifty	-4439
▁gives	-4440
▁gradu	-4441
▁heavy	-4442
▁helps	-4443
▁ibiro	-4444
▁ibiti	-4445
▁igiti	-4446
▁invol	-4447
▁kunda	-4448
▁mpera	-4449
▁mubyo	-4450
▁munzu	-4451
▁names	-4452
▁nzamu	-4453
▁order	-4454
▁parts	-4455
▁price	-4456
▁repla	-4457
▁rwego	-4458
▁shows	-4459
▁soldi	-4460
▁thank	-4461
▁treat	-4462
▁yumva	-4463
bonziza	-4464
gwaneza	-4465
isekeje	-4466
koreshe	-4467
shimira	-4468
turutse	-4469
yongera	-4470
▁Kigali	-4471
▁Ngunda	-4472
▁Yohana	-4473
▁agenda	-4474
▁beauty	-4475
▁bimeze	-4476
▁caused	-4477
▁contra	-4478
▁course	-4479
▁danger	-4480
▁depend	-4481
▁experi	-4482
▁famous	-4483
▁forgot	-4484
▁gereza	-4485
▁gitaha	-4486
▁hazaza	-4487
▁ibyago	-4488
▁impaka	-4489
▁kirori	-4490
▁likely	-4491
▁ndende	-4492
▁niteze	-4493
▁nkweto	-4494
▁nshuti	-4495
▁reduce	-4496
▁rights	-4497
▁sounds	-4498
▁tutari	-4499
▁ukores	-4500
▁ushize	-4501
▁worked	-4502
ongereza	-4503
remereye	-4504
▁Nabwiye	-4505
▁Ndizera	-4506
▁Umugabo	-4507
▁amaraso	-4508
▁bagomba	-4509
▁bicycle	-4510
▁bigenda	-4511
▁bwinshi	-4512
▁college	-4513
▁conside	-4514
▁deserve	-4515
▁factory	-4516
▁general	-4517
▁gukunda	-4518
▁icyumba	-4519
▁include	-4520
▁inkweto	-4521
▁kurwana	-4522
▁leaving	-4523
▁muburyo	-4524
▁nakimwe	-4525
▁prepare	-4526
▁respect	-4527
▁smoking	-4528
▁speaker	-4529
▁umubare	-4530
▁uzabona	-4531
▁yabwiye	-4532
According	-4533
koresheje	-4534
▁abakobwa	-4535
▁birthday	-4536
▁drinking	-4537
▁finished	-4538
▁gusubiza	-4539
▁impapuro	-4540
▁imyitozo	-4541
▁increase	-4542
▁injangwe	-4543
▁magazine	-4544
▁mubirori	-4545
▁mwishuri	-4546
▁nabikoze	-4547
▁pregnant	-4548
▁released	-4549
▁sinigeze	-4550
▁urugendo	-4551
▁yishimye	-4552
▁abaturage	-4553
▁amadorari	-4554
▁education	-4555
▁following	-4556
▁intambara	-4557
▁knowledge	-4558
▁mafaranga	-4559
▁nishimiye	-4560
shakashatsi	-4561
▁Ngabonziza	-4562
▁especially	-4563
▁icyubahiro	-4564
▁importance	-4565
▁kidasanzwe	-4566
▁technology	-4567
▁amasezerano	-4568
hangayikishwa	-4569
▁Ntiwibagirwe	-4570
▁atashoboraga	-4571
00	-4572
Ke	-4573
Ya	-4574
▁(	-4575
▁,	-4576
Umu	-4577
ady	-4578
ala	-4579
art	-4580
cye	-4581
ded	-4582
fes	-4583
fic	-4584
ije	-4585
ins	-4586
jwi	-4587
lub	-4588
met	-4589
nzi	-4590
ols	-4591
rac	-4592
raw	-4593
rds	-4594
rgy	-4595
sis	-4596
tee	-4597
tra	-4598
▁."	-4599
▁Lu	-4600
▁nt	-4601
▁sh	-4602
Yego	-4603
anye	-4604
anyi	-4605
baha	-4606
buza	-4607
ests	-4608
fect	-4609
ford	-4610
foto	-4611
ging	-4612
giwe	-4613
hani	-4614
hano	-4615
hino	-4616
ines	-4617
inji	-4618
isen	-4619
jura	-4620
kapu	-4621
kera	-4622
lime	-4623
mals	-4624
mena	-4625
moko	-4626
orts	-4627
reed	-4628
rict	-4629
road	-4630
rura	-4631
soci	-4632
sora	-4633
suzu	-4634
teen	-4635
tegu	-4636
ught	-4637
visi	-4638
wami	-4639
zama	-4640
▁New	-4641
▁Now	-4642
▁asi	-4643
▁cen	-4644
▁cup	-4645
▁die	-4646
▁gri	-4647
▁har	-4648
▁kit	-4649
▁lie	-4650
▁mid	-4651
▁nan	-4652
▁rwu	-4653
▁sca	-4654
▁top	-4655
▁twu	-4656
▁vol	-4657
▁zin	-4658
Nkuko	-4659
abana	-4660
banda	-4661
caman	-4662
ctors	-4663
ganya	-4664
gisho	-4665
handi	-4666
isoko	-4667
isubi	-4668
jijwe	-4669
kindi	-4670
kozwe	-4671
kunzi	-4672
llage	-4673
mbuka	-4674
mwami	-4675
mwana	-4676
ranyi	-4677
rindi	-4678
risha	-4679
tives	-4680
tsiko	-4681
tunzi	-4682
urope	-4683
vided	-4684
wenya	-4685
yumvo	-4686
▁Beth	-4687
▁Fran	-4688
▁Juru	-4689
▁Kera	-4690
▁Then	-4691
▁asha	-4692
▁atta	-4693
▁biba	-4694
▁card	-4695
▁char	-4696
▁club	-4697
▁crea	-4698
▁dead	-4699
▁deta	-4700
▁effe	-4701
▁ente	-4702
▁film	-4703
▁gift	-4704
▁hara	-4705
▁hino	-4706
▁hose	-4707
▁ibyu	-4708
▁ikwi	-4709
▁imbu	-4710
▁imir	-4711
▁kaba	-4712
▁kita	-4713
▁kuro	-4714
▁kuzu	-4715
▁main	-4716
▁mana	-4717
▁move	-4718
▁muse	-4719
▁naku	-4720
▁none	-4721
▁nuku	-4722
▁paul	-4723
▁repe	-4724
▁role	-4725
▁safe	-4726
▁secu	-4727
▁ship	-4728
▁shop	-4729
▁test	-4730
▁tubi	-4731
▁umwu	-4732
▁warn	-4733
▁wasn	-4734
▁yagu	-4735
▁yaku	-4736
▁yatu	-4737
▁yigi	-4738
▁zari	-4739
baruwa	-4740
beshya	-4741
bonana	-4742
gerayo	-4743
gikira	-4744
gikiye	-4745
horaga	-4746
kuraho	-4747
mfasha	-4748
ourage	-4749
posita	-4750
ranira	-4751
rekeza	-4752
ricans	-4753
shanwa	-4754
tsindi	-4755
vugaho	-4756
vugizi	-4757
▁Inama	-4758
▁Ntawa	-4759
▁Ntiya	-4760
▁accom	-4761
▁amezi	-4762
▁azabi	-4763
▁beans	-4764
▁bombi	-4765
▁bwite	-4766
▁byabo	-4767
▁check	-4768
▁cyuma	-4769
▁drive	-4770
▁elect	-4771
▁exerc	-4772
▁gusin	-4773
▁ibara	-4774
▁ibice	-4775
▁icupa	-4776
▁ifoto	-4777
▁impun	-4778
▁kenny	-4779
▁kugwa	-4780
▁kumpa	-4781
▁kwezi	-4782
▁mbizi	-4783
▁medic	-4784
▁mouth	-4785
▁mutwe	-4786
▁mvuga	-4787
▁myaka	-4788
▁nkumu	-4789
▁ntari	-4790
▁plane	-4791
▁rules	-4792
▁rwiza	-4793
▁satis	-4794
▁share	-4795
▁shuri	-4796
▁smart	-4797
▁spoke	-4798
▁suffe	-4799
▁sweet	-4800
▁taken	-4801
▁uguta	-4802
▁umeze	-4803
▁utaha	-4804
▁wange	-4805
▁witwa	-4806
▁wumva	-4807
▁yange	-4808
▁youth	-4809
camanza	-4810
enocide	-4811
enoside	-4812
funguzo	-4813
garagam	-4814
hildren	-4815
ishingi	-4816
mission	-4817
rangije	-4818
shinzwe	-4819
teganya	-4820
tingito	-4821
yigisho	-4822
▁Dufite	-4823
▁Nagize	-4824
▁Spirit	-4825
▁Umwana	-4826
▁abroad	-4827
▁abwira	-4828
▁afford	-4829
▁basket	-4830
▁bifite	-4831
▁bitewe	-4832
▁bottle	-4833
▁charac	-4834
▁divayi	-4835
▁except	-4836
▁guseka	-4837
▁guteka	-4838
▁gutuma	-4839
▁habaho	-4840
▁helped	-4841
▁ibanga	-4842
▁ihenze	-4843
▁inyama	-4844
▁inzoga	-4845
▁izindi	-4846
▁kuguha	-4847
▁lawyer	-4848
▁magana	-4849
▁ndanga	-4850
▁neighb	-4851
▁nibura	-4852
▁nukuri	-4853
▁rifite	-4854
▁scared	-4855
▁solved	-4856
▁speaks	-4857
▁trying	-4858
▁tugiye	-4859
▁turebe	-4860
▁umunya	-4861
▁usibye	-4862
▁waguze	-4863
▁wakoze	-4864
▁wifuza	-4865
▁yaguze	-4866
▁yatuma	-4867
▁yicaye	-4868
▁yuzuye	-4869
▁zifite	-4870
Ndashaka	-4871
haguruka	-4872
hamagara	-4873
▁America	-4874
▁Ndibaza	-4875
▁Nzakora	-4876
▁Pacific	-4877
▁animals	-4878
▁bashaka	-4879
▁biterwa	-4880
▁competi	-4881
▁courage	-4882
▁foreign	-4883
▁gutandu	-4884
▁ikirere	-4885
▁imirimo	-4886
▁ingingo	-4887
▁intumwa	-4888
▁itegeko	-4889
▁keretse	-4890
▁kubantu	-4891
▁kumunsi	-4892
▁kwakira	-4893
▁kwicara	-4894
▁leaders	-4895
▁library	-4896
▁mpeshyi	-4897
▁promise	-4898
▁umubiri	-4899
▁umuriro	-4900
▁urusaku	-4901
▁village	-4902
▁wabonye	-4903
▁wearing	-4904
▁yabonye	-4905
▁yapfuye	-4906
byitayeho	-4907
dashoboka	-4908
▁Rwandans	-4909
▁Sinkunda	-4910
▁Umukobwa	-4911
▁arrested	-4912
▁behavior	-4913
▁believed	-4914
▁bisekeje	-4915
▁bukomeye	-4916
▁byagenda	-4917
▁contract	-4918
▁dukeneye	-4919
▁fighting	-4920
▁gitaramo	-4921
▁ibihumbi	-4922
▁involved	-4923
▁position	-4924
▁products	-4925
▁requires	-4926
▁rikomeye	-4927
▁sentence	-4928
▁ubumenyi	-4929
▁ubwanjye	-4930
▁umuganga	-4931
▁wabikora	-4932
koreshejwe	-4933
tekerezako	-4934
▁apologize	-4935
▁atekereza	-4936
▁azatsinda	-4937
▁bitangaje	-4938
▁bizagenda	-4939
▁cyihariye	-4940
▁gatandatu	-4941
▁kugurisha	-4942
▁kumvikana	-4943
▁nashoboye	-4944
▁umwanzuro	-4945
▁Mutekereza	-4946
▁Ntashobora	-4947
▁guhamagara	-4948
▁iterambere	-4949
▁ntushobora	-4950
▁themselves	-4951
▁umutingito	-4952
▁university	-4953
▁atandukanye	-4954
▁kubyerekeye	-4955
▁bitandukanye	-4956
▁gishimishije	-4957
▁gushidikanya	-4958
At	-4959
Ka	-4960
So	-4961
fo	-4962
if	-4963
ks	-4964
py	-4965
For	-4966
Iki	-4967
Not	-4968
aga	-4969
cre	-4970
hol	-4971
hwe	-4972
iri	-4973
iss	-4974
kes	-4975
ley	-4976
lts	-4977
mar	-4978
nes	-4979
nge	-4980
nic	-4981
ona	-4982
oth	-4983
sho	-4984
som	-4985
vir	-4986
▁Al	-4987
▁As	-4988
▁Ge	-4989
▁Yi	-4990
▁je	-4991
▁sw	-4992
bega	-4993
bisi	-4994
byin	-4995
cece	-4996
ches	-4997
gagi	-4998
geko	-4999
geme	-5000
gion	-5001
hame	-5002
hend	-5003
hize	-5004
huha	-5005
itar	-5006
kiyo	-5007
lder	-5008
meje	-5009
naka	-5010
nini	-5011
okyo	-5012
orwa	-5013
osed	-5014
ourn	-5015
para	-5016
port	-5017
ptop	-5018
raye	-5019
reng	-5020
rero	-5021
rove	-5022
rown	-5023
saza	-5024
solu	-5025
some	-5026
ssed	-5027
tiri	-5028
tuku	-5029
utho	-5030
vugo	-5031
waye	-5032
wowe	-5033
yaba	-5034
▁Aho	-5035
▁Ara	-5036
▁Ayo	-5037
▁Chi	-5038
▁Com	-5039
▁Mat	-5040
▁Nat	-5041
▁Red	-5042
▁aso	-5043
▁bre	-5044
▁cli	-5045
▁cri	-5046
▁din	-5047
▁exc	-5048
▁fix	-5049
▁glo	-5050
▁ign	-5051
▁iya	-5052
▁nto	-5053
▁ori	-5054
▁rid	-5055
▁rum	-5056
▁sal	-5057
▁ubw	-5058
▁uga	-5059
▁uki	-5060
▁yon	-5061
Ariko	-5062
Imana	-5063
Today	-5064
aniye	-5065
banze	-5066
basha	-5067
bindi	-5068
bwama	-5069
byibu	-5070
hisha	-5071
indwa	-5072
ishwe	-5073
kuntu	-5074
kurya	-5075
murwa	-5076
ngubu	-5077
omero	-5078
rambi	-5079
rashi	-5080
rible	-5081
riday	-5082
rwara	-5083
tangi	-5084
tonda	-5085
tungo	-5086
umuro	-5087
vious	-5088
viron	-5089
wanyu	-5090
yansi	-5091
▁Bill	-5092
▁Does	-5093
▁Gisa	-5094
▁Hara	-5095
▁Inte	-5096
▁Just	-5097
▁Kuva	-5098
▁Leta	-5099
▁Only	-5100
▁Pari	-5101
▁Ubwo	-5102
▁Will	-5103
▁ajya	-5104
▁army	-5105
▁bana	-5106
▁bihe	-5107
▁boss	-5108
▁bull	-5109
▁buru	-5110
▁buta	-5111
▁copy	-5112
▁cous	-5113
▁cows	-5114
▁dama	-5115
▁defe	-5116
▁duka	-5117
▁expl	-5118
▁feet	-5119
▁fell	-5120
▁guko	-5121
▁guta	-5122
▁habi	-5123
▁iPad	-5124
▁inju	-5125
▁inya	-5126
▁inye	-5127
▁kopi	-5128
▁koti	-5129
▁leta	-5130
▁list	-5131
▁maso	-5132
▁mazi	-5133
▁mbwa	-5134
▁meal	-5135
▁mike	-5136
▁mira	-5137
▁muki	-5138
▁mure	-5139
▁niga	-5140
▁niyi	-5141
▁poro	-5142
▁ring	-5143
▁rugi	-5144
▁step	-5145
▁ubwe	-5146
▁udas	-5147
▁ujya	-5148
▁ukwi	-5149
▁urya	-5150
▁vide	-5151
▁wewe	-5152
▁whis	-5153
▁wise	-5154
babare	-5155
babaro	-5156
babaza	-5157
bagiwe	-5158
biliya	-5159
essica	-5160
fitiye	-5161
franga	-5162
gabane	-5163
garara	-5164
gurira	-5165
hiriza	-5166
idents	-5167
ishize	-5168
itizen	-5169
kenera	-5170
kiriye	-5171
komoka	-5172
member	-5173
metero	-5174
murage	-5175
owever	-5176
rekeje	-5177
rently	-5178
ruguru	-5179
tegura	-5180
tsinze	-5181
urundi	-5182
vuduko	-5183
vugaga	-5184
yarazi	-5185
yereka	-5186
yobora	-5187
▁Abana	-5188
▁Looks	-5189
▁Nancy	-5190
▁Ntibi	-5191
▁Nzaku	-5192
▁Satur	-5193
▁Tokyo	-5194
▁Ugiye	-5195
▁advan	-5196
▁amata	-5197
▁bwaba	-5198
▁bwari	-5199
▁bwato	-5200
▁cance	-5201
▁clock	-5202
▁cloud	-5203
▁court	-5204
▁cross	-5205
▁cyama	-5206
▁deter	-5207
▁forgi	-5208
▁gupfa	-5209
▁gusan	-5210
▁hirya	-5211
▁iduka	-5212
▁imiti	-5213
▁irimo	-5214
▁itaba	-5215
▁izaba	-5216
▁judge	-5217
▁liked	-5218
▁measu	-5219
▁munya	-5220
▁ntuka	-5221
▁nyayo	-5222
▁nyira	-5223
▁nzaku	-5224
▁older	-5225
▁paper	-5226
▁ruswa	-5227
▁shirt	-5228
▁songs	-5229
▁stuff	-5230
▁tools	-5231
▁tujye	-5232
▁types	-5233
▁ubura	-5234
▁ugira	-5235
▁umaze	-5236
▁yatan	-5237
Because	-5238
bagirwa	-5239
byemera	-5240
cyafite	-5241
fashije	-5242
giranye	-5243
gukunda	-5244
gutwara	-5245
hinduye	-5246
meranya	-5247
rengera	-5248
shushan	-5249
▁Europe	-5250
▁Kigeme	-5251
▁London	-5252
▁Mufite	-5253
▁Ntibis	-5254
▁Tokiyo	-5255
▁ahandi	-5256
▁associ	-5257
▁bibaye	-5258
▁birimo	-5259
▁bitera	-5260
▁bizaku	-5261
▁byanze	-5262
▁causes	-5263
▁choice	-5264
▁closed	-5265
▁commit	-5266
▁design	-5267
▁easier	-5268
▁either	-5269
▁energy	-5270
▁eshanu	-5271
▁eshatu	-5272
▁figure	-5273
▁gatanu	-5274
▁guhora	-5275
▁guitar	-5276
▁gutera	-5277
▁handle	-5278
▁honest	-5279
▁ikinya	-5280
▁indust	-5281
▁ingira	-5282
▁issues	-5283
▁kubaza	-5284
▁laptop	-5285
▁nagiye	-5286
▁nature	-5287
▁nijoro	-5288
▁player	-5289
▁prison	-5290
▁punish	-5291
▁remedy	-5292
▁remove	-5293
▁runaka	-5294
▁seemed	-5295
▁sinari	-5296
▁spread	-5297
▁stayed	-5298
▁tegeko	-5299
▁thirty	-5300
▁umwuka	-5301
▁weight	-5302
▁yabuze	-5303
gurishwa	-5304
ishyimbo	-5305
isumbuye	-5306
sirikare	-5307
yingenzi	-5308
▁Imodoka	-5309
▁Ingingo	-5310
▁Ndabona	-5311
▁Ndasaba	-5312
▁Ruganzu	-5313
▁advised	-5314
▁article	-5315
▁cyemezo	-5316
▁decided	-5317
▁depends	-5318
▁dukwiye	-5319
▁employe	-5320
▁environ	-5321
▁gusenga	-5322
▁helping	-5323
▁history	-5324
▁ibiciro	-5325
▁imagine	-5326
▁ishusho	-5327
▁jessica	-5328
▁knowing	-5329
▁letters	-5330
▁mpanuka	-5331
▁mucanga	-5332
▁namenye	-5333
▁njangwe	-5334
▁ruhande	-5335
▁siyansi	-5336
▁student	-5337
▁twagiye	-5338
▁ubukode	-5339
▁ubutaha	-5340
▁ukubera	-5341
▁urubura	-5342
▁urugero	-5343
▁yamenye	-5344
gurishije	-5345
hanyarazi	-5346
tangiriro	-5347
▁Biragoye	-5348
▁Habayeho	-5349
▁Umwarimu	-5350
▁admitted	-5351
▁amashuri	-5352
▁bijyanye	-5353
▁burigihe	-5354
▁contains	-5355
▁dushyire	-5356
▁expected	-5357
▁guhitamo	-5358
▁gusubira	-5359
▁hazabaho	-5360
▁igikombe	-5361
▁impumuro	-5362
▁kohereza	-5363
▁kubibona	-5364
▁kwigisha	-5365
▁national	-5366
▁niteguye	-5367
▁ntagomba	-5368
▁ntakintu	-5369
▁preached	-5370
▁realized	-5371
▁received	-5372
▁security	-5373
▁supposed	-5374
▁ubutwari	-5375
▁utagomba	-5376
ashoboraga	-5377
hushanyije	-5378
shyingirwa	-5379
▁Pacifique	-5380
▁Ubuyapani	-5381
▁Umuyobozi	-5382
▁bihindura	-5383
▁disciples	-5384
▁gusangira	-5385
▁kwerekana	-5386
▁ntazigera	-5387
▁telephone	-5388
▁tutagomba	-5389
▁uruhushya	-5390
▁yagombaga	-5391
dushoboraku	-5392
▁Ntawamenya	-5393
▁gusobanura	-5394
▁nzashobora	-5395
▁television	-5396
▁umushyitsi	-5397
▁understood	-5398
▁utabishaka	-5399
▁yatekereje	-5400
▁birumvikana	-5401
▁imyitwarire	-5402
▁kwiyumvisha	-5403
▁ingirakamaro	-5404
▁mucyongereza	-5405
▁ndangamurage	-5406
▁ntiyashakaga	-5407
▁turatekerezako	-5408
By	-5409
Ex	-5410
My	-5411
On	-5412
Re	-5413
Wi	-5414
And	-5415
Had	-5416
Nza	-5417
bts	-5418
bum	-5419
ech	-5420
ejo	-5421
gar	-5422
hwa	-5423
ils	-5424
ily	-5425
ism	-5426
jim	-5427
let	-5428
nyu	-5429
ode	-5430
ora	-5431
ots	-5432
pfo	-5433
phe	-5434
rop	-5435
rwo	-5436
sem	-5437
uba	-5438
▁De	-5439
▁Oh	-5440
▁Or	-5441
▁Sy	-5442
▁ef	-5443
Some	-5444
ared	-5445
cial	-5446
cing	-5447
dini	-5448
diro	-5449
ende	-5450
fate	-5451
gent	-5452
head	-5453
hoza	-5454
huse	-5455
imwe	-5456
inze	-5457
kane	-5458
kini	-5459
kiwe	-5460
lock	-5461
mand	-5462
mare	-5463
mble	-5464
mero	-5465
mine	-5466
mire	-5467
ngwa	-5468
peri	-5469
rije	-5470
rite	-5471
rous	-5472
tato	-5473
tewe	-5474
tira	-5475
tire	-5476
veni	-5477
vide	-5478
vies	-5479
vura	-5480
ward	-5481
wobo	-5482
yemo	-5483
yika	-5484
yoko	-5485
yoye	-5486
yuka	-5487
zego	-5488
zeho	-5489
zimu	-5490
▁Any	-5491
▁App	-5492
▁Ban	-5493
▁Bas	-5494
▁Get	-5495
▁Izi	-5496
▁Kwi	-5497
▁Mpa	-5498
▁Par	-5499
▁Uku	-5500
▁Uwi	-5501
▁Yas	-5502
▁ann	-5503
▁bra	-5504
▁chi	-5505
▁enc	-5506
▁equ	-5507
▁eye	-5508
▁fur	-5509
▁hit	-5510
▁ins	-5511
▁jye	-5512
▁kal	-5513
▁kan	-5514
▁led	-5515
▁mat	-5516
▁mur	-5517
▁nyi	-5518
▁poe	-5519
▁sky	-5520
▁sla	-5521
▁spa	-5522
▁sus	-5523
ality	-5524
banje	-5525
ented	-5526
eshya	-5527
fully	-5528
ining	-5529
isozi	-5530
jyaga	-5531
kirwa	-5532
mbire	-5533
mbuza	-5534
mvira	-5535
pping	-5536
ption	-5537
rinzi	-5538
singa	-5539
stand	-5540
tsina	-5541
tural	-5542
vutse	-5543
vuzwe	-5544
wange	-5545
yanyu	-5546
zanyo	-5547
zumva	-5548
zweho	-5549
▁Bari	-5550
▁Holy	-5551
▁Intu	-5552
▁Repu	-5553
▁Turi	-5554
▁Umwe	-5555
▁Yuhi	-5556
▁asks	-5557
▁base	-5558
▁beat	-5559
▁belt	-5560
▁burn	-5561
▁buza	-5562
▁capa	-5563
▁cell	-5564
▁cere	-5565
▁cool	-5566
▁debt	-5567
▁dest	-5568
▁draw	-5569
▁file	-5570
▁gets	-5571
▁haza	-5572
▁hero	-5573
▁hole	-5574
▁holy	-5575
▁ingo	-5576
▁inno	-5577
▁invi	-5578
▁john	-5579
▁join	-5580
▁kawe	-5581
▁keza	-5582
▁kuda	-5583
▁kuga	-5584
▁muba	-5585
▁naho	-5586
▁niko	-5587
▁njya	-5588
▁nkin	-5589
▁ntis	-5590
▁pray	-5591
▁radi	-5592
▁regu	-5593
▁repa	-5594
▁ruhu	-5595
▁sale	-5596
▁salt	-5597
▁sche	-5598
▁shar	-5599
▁sibl	-5600
▁slow	-5601
▁upon	-5602
▁vege	-5603
▁wara	-5604
▁yiki	-5605
▁yiyi	-5606
▁yuru	-5607
batswe	-5608
bonera	-5609
deresi	-5610
father	-5611
furika	-5612
garamu	-5613
gokuru	-5614
hariko	-5615
hereye	-5616
karamu	-5617
kecuru	-5618
kemuye	-5619
kiriya	-5620
komeze	-5621
korewe	-5622
kristo	-5623
modoka	-5624
mugayo	-5625
ricity	-5626
sembly	-5627
subira	-5628
tables	-5629
▁Alice	-5630
▁Bible	-5631
▁Nicyo	-5632
▁Ntuki	-5633
▁Paris	-5634
▁ageze	-5635
▁akaga	-5636
▁amafi	-5637
▁apple	-5638
▁appli	-5639
▁asaba	-5640
▁banyu	-5641
▁biran	-5642
▁break	-5643
▁bwayo	-5644
▁byaku	-5645
▁cyibi	-5646
▁dress	-5647
▁finds	-5648
▁force	-5649
▁glory	-5650
▁horse	-5651
▁iriya	-5652
▁itari	-5653
▁kelly	-5654
▁kukwi	-5655
▁kwita	-5656
▁lucky	-5657
▁meant	-5658
▁metal	-5659
▁metho	-5660
▁ngaho	-5661
▁nkigi	-5662
▁nkiki	-5663
▁noise	-5664
▁ntara	-5665
▁ntiza	-5666
▁ntuzi	-5667
▁predi	-5668
▁salle	-5669
▁terms	-5670
▁ubure	-5671
▁voice	-5672
▁weeks	-5673
▁worth	-5674
▁zimwe	-5675
anditsi	-5676
bimenya	-5677
dukunda	-5678
gations	-5679
genzura	-5680
initely	-5681
kandara	-5682
mubwiye	-5683
sengers	-5684
shahara	-5685
umugabo	-5686
vugisha	-5687
yuranye	-5688
▁Bifata	-5689
▁Friday	-5690
▁Mariko	-5691
▁Naguze	-5692
▁Nigeze	-5693
▁Niwowe	-5694
▁Nizera	-5695
▁Polisi	-5696
▁Shyira	-5697
▁Yehova	-5698
▁amenye	-5699
▁aribwo	-5700
▁asking	-5701
▁attack	-5702
▁baramu	-5703
▁batazi	-5704
▁bazaba	-5705
▁benefi	-5706
▁bikora	-5707
▁buriri	-5708
▁bushya	-5709
▁conver	-5710
▁decent	-5711
▁dinner	-5712
▁driver	-5713
▁filime	-5714
▁fruits	-5715
▁gitari	-5716
▁ground	-5717
▁having	-5718
▁ignore	-5719
▁imboga	-5720
▁ingahe	-5721
▁island	-5722
▁kariya	-5723
▁kivuga	-5724
▁kiyaga	-5725
▁kuhaba	-5726
▁kuzana	-5727
▁leaves	-5728
▁locked	-5729
▁master	-5730
▁minute	-5731
▁movies	-5732
▁moving	-5733
▁mugabe	-5734
▁museum	-5735
▁musozi	-5736
▁nabana	-5737
▁nakora	-5738
▁ngenda	-5739
▁nibuka	-5740
▁nkibyo	-5741
▁paying	-5742
▁proper	-5743
▁refuse	-5744
▁repeat	-5745
▁rishya	-5746
▁shyira	-5747
▁streng	-5748
▁taking	-5749
▁talked	-5750
▁ticket	-5751
▁ubumwe	-5752
▁ukwiye	-5753
▁unique	-5754
▁unless	-5755
▁winter	-5756
▁yemera	-5757
▁yemeye	-5758
dukikije	-5759
garagaje	-5760
gendanwa	-5761
hagarike	-5762
hamagaye	-5763
hendutse	-5764
hindutse	-5765
hushanyo	-5766
rushanwa	-5767
shakanye	-5768
shakisha	-5769
solutely	-5770
▁Intumwa	-5771
▁Nuburyo	-5772
▁Urabizi	-5773
▁Urakoze	-5774
▁abakozi	-5775
▁abikora	-5776
▁aderesi	-5777
▁amazina	-5778
▁ashamed	-5779
▁babonye	-5780
▁birenze	-5781
▁butumwa	-5782
▁citizen	-5783
▁custome	-5784
▁dushaka	-5785
▁economy	-5786
▁example	-5787
▁hearing	-5788
▁ibaruwa	-5789
▁igicucu	-5790
▁ikomeye	-5791
▁illness	-5792
▁injured	-5793
▁instead	-5794
▁isomero	-5795
▁itukura	-5796
▁justice	-5797
▁kangahe	-5798
▁kubyina	-5799
▁kwiruka	-5800
▁kwisoko	-5801
▁measure	-5802
▁million	-5803
▁mumujyi	-5804
▁nabandi	-5805
▁protect	-5806
▁protest	-5807
▁provide	-5808
▁removed	-5809
▁selling	-5810
▁service	-5811
▁singing	-5812
▁species	-5813
▁studied	-5814
▁success	-5815
▁udafite	-5816
▁umunani	-5817
▁umusazi	-5818
▁umuziki	-5819
▁visited	-5820
▁wambaye	-5821
▁wambere	-5822
▁worship	-5823
▁yabantu	-5824
▁yaretse	-5825
▁yasabye	-5826
▁yinjiye	-5827
▁yumvise	-5828
Ukurikije	-5829
isubiramo	-5830
shushanya	-5831
zamahanga	-5832
▁Although	-5833
▁Remember	-5834
▁accepted	-5835
▁activity	-5836
▁bihuriye	-5837
▁bikenewe	-5838
▁bisanzwe	-5839
▁complain	-5840
▁economic	-5841
▁employer	-5842
▁exciting	-5843
▁exercise	-5844
▁genocide	-5845
▁gusobanu	-5846
▁ikwiriye	-5847
▁interuro	-5848
▁inyubako	-5849
▁jenoside	-5850
▁kijyanye	-5851
▁kindness	-5852
▁medicine	-5853
▁mibereho	-5854
▁ngukunda	-5855
▁ntambara	-5856
▁politiki	-5857
▁studying	-5858
▁teachers	-5859
▁telefone	-5860
▁thoughts	-5861
▁ubugingo	-5862
▁ubukonje	-5863
▁ubungubu	-5864
▁umuhanda	-5865
▁urutonde	-5866
▁vacation	-5867
▁wabikoze	-5868
▁wamaguru	-5869
▁whatever	-5870
▁yumukara	-5871
bwamahirwe	-5872
kurikirana	-5873
rasirazuba	-5874
tekerezaho	-5875
tunguranye	-5876
▁Mubyukuri	-5877
▁agreement	-5878
▁amaherezo	-5879
▁bizatwara	-5880
▁byerekana	-5881
▁completed	-5882
▁continues	-5883
▁decisions	-5884
▁documents	-5885
▁gasanduku	-5886
▁guhinduka	-5887
▁gusinzira	-5888
▁happiness	-5889
▁ibizamini	-5890
▁ibyiyumvo	-5891
▁kubimenya	-5892
▁kwamamaza	-5893
▁mumahanga	-5894
▁seriously	-5895
▁surprised	-5896
▁ukurikije	-5897
▁yishimiye	-5898
Mumbabarire	-5899
yangamugayo	-5900
▁basketball	-5901
▁considered	-5902
▁experience	-5903
▁ibishyimbo	-5904
▁impungenge	-5905
▁kitoroshye	-5906
▁kubahiriza	-5907
▁kubijyanye	-5908
▁passengers	-5909
▁surprising	-5910
▁televiziyo	-5911
▁ukoresheje	-5912
▁umukandara	-5913
▁vegetables	-5914
▁bidashoboka	-5915
▁grandfather	-5916
▁ibimenyetso	-5917
▁kinyamakuru	-5918
▁sintekereza	-5919
▁Biragaragara	-5920
▁amakimbirane	-5921
▁ntazashobora	-5922
▁ntuzashobora	-5923
▁zitandukanye	-5924
▁responsibility	-5925
Mi	-5926
ud	-5927
xi	-5928
Aho	-5929
Don	-5930
Hey	-5931
His	-5932
Nzi	-5933
aka	-5934
ate	-5935
ats	-5936
bre	-5937
cra	-5938
cto	-5939
cul	-5940
dle	-5941
een	-5942
eld	-5943
fir	-5944
fts	-5945
gle	-5946
hum	-5947
iam	-5948
iro	-5949
kom	-5950
kra	-5951
len	-5952
lla	-5953
mie	-5954
mve	-5955
myo	-5956
nze	-5957
osi	-5958
owu	-5959
pic	-5960
ppo	-5961
pre	-5962
uko	-5963
way	-5964
yob	-5965
you	-5966
▁Am	-5967
▁By	-5968
▁Es	-5969
▁Go	-5970
▁Hi	-5971
▁Ic	-5972
▁Iv	-5973
▁Li	-5974
▁Of	-5975
▁Sc	-5976
▁bl	-5977
▁ut	-5978
?"""	-5979
Bira	-5980
Mike	-5981
They	-5982
ance	-5983
ants	-5984
ards	-5985
ashe	-5986
baga	-5987
baya	-5988
beba	-5989
bije	-5990
buke	-5991
buli	-5992
cate	-5993
cies	-5994
cupa	-5995
dium	-5996
enry	-5997
etse	-5998
game	-5999
gano	-6000
gest	-6001
gisi	-6002
guka	-6003
hiye	-6004
hood	-6005
huka	-6006
hure	-6007
ider	-6008
juje	-6009
kets	-6010
kure	-6011
kuta	-6012
lict	-6013
like	-6014
meri	-6015
mony	-6016
muri	-6017
ners	-6018
nger	-6019
nity	-6020
nota	-6021
otse	-6022
pers	-6023
peta	-6024
pora	-6025
rita	-6026
seri	-6027
siga	-6028
sign	-6029
then	-6030
thew	-6031
tuna	-6032
tura	-6033
umwe	-6034
unch	-6035
vier	-6036
view	-6037
wano	-6038
ware	-6039
zabi	-6040
zaga	-6041
zeza	-6042
zito	-6043
zoga	-6044
zuma	-6045
▁Ako	-6046
▁Aza	-6047
▁Bit	-6048
▁Bri	-6049
▁Cha	-6050
▁For	-6051
▁Mam	-6052
▁Mas	-6053
▁Nde	-6054
▁San	-6055
▁Sat	-6056
▁Sun	-6057
▁Uri	-6058
▁Wor	-6059
▁abu	-6060
▁ana	-6061
▁art	-6062
▁cru	-6063
▁dep	-6064
▁dir	-6065
▁due	-6066
▁fab	-6067
▁fla	-6068
▁gun	-6069
▁iku	-6070
▁imu	-6071
▁int	-6072
▁isu	-6073
▁leg	-6074
▁lic	-6075
▁ran	-6076
▁rug	-6077
▁san	-6078
▁sex	-6079
▁spi	-6080
▁sub	-6081
▁sug	-6082
▁tou	-6083
▁wai	-6084
Kevin	-6085
banye	-6086
bwiwe	-6087
clock	-6088
ctive	-6089
ctory	-6090
denti	-6091
estly	-6092
forts	-6093
ganwa	-6094
genzo	-6095
gumye	-6096
hinga	-6097
hinzi	-6098
hishe	-6099
hones	-6100
hovah	-6101
jyane	-6102
jyewe	-6103
kanga	-6104
koman	-6105
kumva	-6106
manzi	-6107
mbaho	-6108
mbera	-6109
mbiwe	-6110
mbuzi	-6111
mwaka	-6112
nyeri	-6113
omaje	-6114
ommen	-6115
owulf	-6116
rican	-6117
rinde	-6118
rusha	-6119
sinda	-6120
ssion	-6121
tanye	-6122
tumba	-6123
ubumu	-6124
vered	-6125
vesti	-6126
vices	-6127
yanya	-6128
yobya	-6129
▁Even	-6130
▁Gicu	-6131
▁Ikin	-6132
▁Indi	-6133
▁Isra	-6134
▁Kare	-6135
▁Mars	-6136
▁Maze	-6137
▁Most	-6138
▁Stop	-6139
▁York	-6140
▁alco	-6141
▁ange	-6142
▁atan	-6143
▁azan	-6144
▁ball	-6145
▁bank	-6146
▁batu	-6147
▁bott	-6148
▁buba	-6149
▁cyin	-6150
▁date	-6151
▁deba	-6152
▁deni	-6153
▁deny	-6154
▁dist	-6155
▁enye	-6156
▁favo	-6157
▁fill	-6158
▁fing	-6159
▁foll	-6160
▁gufu	-6161
▁held	-6162
▁hold	-6163
▁holi	-6164
▁ijya	-6165
▁imas	-6166
▁imyu	-6167
▁inde	-6168
▁inti	-6169
▁jail	-6170
▁jour	-6171
▁kigo	-6172
▁lack	-6173
▁lied	-6174
▁lift	-6175
▁loan	-6176
▁loud	-6177
▁mezi	-6178
▁mibi	-6179
▁mura	-6180
▁naje	-6181
▁pick	-6182
▁poem	-6183
▁pond	-6184
▁reco	-6185
▁riso	-6186
▁riza	-6187
▁rock	-6188
▁rule	-6189
▁seve	-6190
▁shot	-6191
▁size	-6192
▁somo	-6193
▁soul	-6194
▁stra	-6195
▁stru	-6196
▁task	-6197
▁tuda	-6198
▁tuti	-6199
▁wall	-6200
▁wibi	-6201
▁wide	-6202
▁yare	-6203
▁yesu	-6204
Abantu	-6205
Excuse	-6206
angayi	-6207
anirwa	-6208
arning	-6209
bishyi	-6210
bukuru	-6211
bulika	-6212
dering	-6213
ebyiri	-6214
gamije	-6215
garagu	-6216
gerera	-6217
guriza	-6218
gutera	-6219
hakana	-6220
hamaga	-6221
hembwa	-6222
hemuka	-6223
hereke	-6224
herero	-6225
ishaje	-6226
ishima	-6227
komere	-6228
koreye	-6229
kubona	-6230
kuruza	-6231
lation	-6232
magaye	-6233
market	-6234
mbitse	-6235
papuro	-6236
perere	-6237
rayeli	-6238
subije	-6239
tabera	-6240
▁Banya	-6241
▁Every	-6242
▁Hamwe	-6243
▁Henry	-6244
▁Izina	-6245
▁Mwami	-6246
▁Ntawu	-6247
▁Nzabi	-6248
▁Urasa	-6249
▁afata	-6250
▁akiri	-6251
▁album	-6252
▁amaka	-6253
▁amazu	-6254
▁ataba	-6255
▁atanu	-6256
▁badly	-6257
▁barya	-6258
▁bless	-6259
▁bundi	-6260
▁compa	-6261
▁conne	-6262
▁conse	-6263
▁disco	-6264
▁drugs	-6265
▁elder	-6266
▁fired	-6267
▁forty	-6268
▁genda	-6269
▁glass	-6270
▁grief	-6271
▁hurry	-6272
▁hurts	-6273
▁ikira	-6274
▁imita	-6275
▁kirwa	-6276
▁kukwe	-6277
▁kunye	-6278
▁kwamu	-6279
▁level	-6280
▁local	-6281
▁lunch	-6282
▁manzi	-6283
▁mfata	-6284
▁mwese	-6285
▁myiza	-6286
▁ndamu	-6287
▁nkiyi	-6288
▁ntaho	-6289
▁ntiri	-6290
▁ntuga	-6291
▁plate	-6292
▁plays	-6293
▁queen	-6294
▁raise	-6295
▁refer	-6296
▁ryumu	-6297
▁secre	-6298
▁shame	-6299
▁shoot	-6300
▁stars	-6301
▁super	-6302
▁survi	-6303
▁takes	-6304
▁taxes	-6305
▁third	-6306
▁topic	-6307
▁tradi	-6308
▁truck	-6309
▁twaba	-6310
▁twice	-6311
▁ubona	-6312
▁ugeze	-6313
▁ukore	-6314
▁upset	-6315
▁usoma	-6316
▁volun	-6317
▁yandi	-6318
▁yasin	-6319
amaguru	-6320
banutse	-6321
bikorwa	-6322
fatanya	-6323
fession	-6324
gendera	-6325
isigaye	-6326
isitiri	-6327
kingure	-6328
kinisho	-6329
lations	-6330
muhanda	-6331
onestly	-6332
ruption	-6333
rusalem	-6334
tagenda	-6335
tsindwa	-6336
turanyi	-6337
ubuzima	-6338
▁Burayi	-6339
▁Ibintu	-6340
▁Ijambo	-6341
▁Kabuga	-6342
▁Mammie	-6343
▁Noneho	-6344
▁Police	-6345
▁Sunday	-6346
▁agreed	-6347
▁amenya	-6348
▁animal	-6349
▁appear	-6350
▁arenga	-6351
▁babiri	-6352
▁barimo	-6353
▁basore	-6354
▁batanu	-6355
▁bicaye	-6356
▁bikaba	-6357
▁birori	-6358
▁bisaba	-6359
▁bishya	-6360
▁closer	-6361
▁comfor	-6362
▁common	-6363
▁corner	-6364
▁cousin	-6365
▁descri	-6366
▁easily	-6367
▁firigo	-6368
▁guests	-6369
▁guhera	-6370
▁helmet	-6371
▁houses	-6372
▁ibyawe	-6373
▁icyaha	-6374
▁icyari	-6375
▁icyuzi	-6376
▁ikinyo	-6377
▁imvugo	-6378
▁ingabo	-6379
▁intebe	-6380
▁intege	-6381
▁inyoni	-6382
▁inzozi	-6383
▁irenga	-6384
▁kamana	-6385
▁kibuga	-6386
▁kirimo	-6387
▁kubika	-6388
▁kuguza	-6389
▁kukazi	-6390
▁manini	-6391
▁method	-6392
▁middle	-6393
▁muriki	-6394
▁muzima	-6395
▁navuze	-6396
▁ngwino	-6397
▁nyanja	-6398
▁origin	-6399
▁parade	-6400
▁photos	-6401
▁picnic	-6402
▁potato	-6403
▁prince	-6404
▁rugira	-6405
▁rumors	-6406
▁season	-6407
▁seeing	-6408
▁siporo	-6409
▁skills	-6410
▁smells	-6411
▁tumaze	-6412
▁turned	-6413
▁ubuntu	-6414
▁ubwiza	-6415
▁umunyu	-6416
▁umwobo	-6417
▁urupfu	-6418
▁useful	-6419
▁warned	-6420
▁wealth	-6421
▁yahuye	-6422
▁yarabi	-6423
▁yifuza	-6424
Nshobora	-6425
ashakaga	-6426
babarira	-6427
bagirana	-6428
bahiriza	-6429
byishimo	-6430
marayika	-6431
menyeshe	-6432
perereza	-6433
tsindiye	-6434
▁Because	-6435
▁Burundi	-6436
▁Germany	-6437
▁Igihugu	-6438
▁Impamvu	-6439
▁Jackson	-6440
▁Jehovah	-6441
▁Londres	-6442
▁Matthew	-6443
▁Nibyiza	-6444
▁Nyamara	-6445
▁Sinumva	-6446
▁achieve	-6447
▁advance	-6448
▁alubumu	-6449
▁amaboko	-6450
▁amahoro	-6451
▁ashonje	-6452
▁azakora	-6453
▁bamenye	-6454
▁bitwaye	-6455
▁byahoze	-6456
▁byibuze	-6457
▁concern	-6458
▁correct	-6459
▁culture	-6460
▁efforts	-6461
▁explana	-6462
▁feeling	-6463
▁finding	-6464
▁gishize	-6465
▁guhunga	-6466
▁gutinda	-6467
▁imibare	-6468
▁imikino	-6469
▁improve	-6470
▁investi	-6471
▁journey	-6472
▁kamanzi	-6473
▁kubiryo	-6474
▁license	-6475
▁mahirwe	-6476
▁members	-6477
▁mugenzi	-6478
▁muminsi	-6479
▁mwijoro	-6480
▁ntibiza	-6481
▁numuntu	-6482
▁nzaguha	-6483
▁obvious	-6484
▁partici	-6485
▁perfect	-6486
▁product	-6487
▁require	-6488
▁resolve	-6489
▁results	-6490
▁rubanda	-6491
▁shobuja	-6492
▁stadium	-6493
▁teaches	-6494
▁tickets	-6495
▁umugati	-6496
▁umusozi	-6497
▁umutaka	-6498
▁unknown	-6499
▁urwenya	-6500
▁wampaye	-6501
▁washing	-6502
▁william	-6503
▁yanyuma	-6504
▁yatumye	-6505
▁yongeye	-6506
▁younger	-6507
▁zirenze	-6508
hagaritse	-6509
hangayika	-6510
jyaruguru	-6511
kurikijwe	-6512
vugishije	-6513
yambarire	-6514
yangombwa	-6515
zashobora	-6516
▁Bibiliya	-6517
▁Nibagiwe	-6518
▁abagenzi	-6519
▁abahungu	-6520
▁amatsiko	-6521
▁baseball	-6522
▁benefits	-6523
▁bizabaho	-6524
▁bucuruzi	-6525
▁busitani	-6526
▁conflict	-6527
▁diseases	-6528
▁document	-6529
▁everyday	-6530
▁faithful	-6531
▁families	-6532
▁feelings	-6533
▁foromaje	-6534
▁gakomeye	-6535
▁ibiyobya	-6536
▁ibyabaye	-6537
▁imashini	-6538
▁kubabaza	-6539
▁kumubona	-6540
▁kurwanya	-6541
▁kwishuri	-6542
▁millions	-6543
▁mububiko	-6544
▁mukinnyi	-6545
▁muminota	-6546
▁muremure	-6547
▁nkubwira	-6548
▁patience	-6549
▁personal	-6550
▁politics	-6551
▁provided	-6552
▁recommen	-6553
▁research	-6554
▁serivisi	-6555
▁speakers	-6556
▁swimming	-6557
▁teaching	-6558
▁tutagiye	-6559
▁umugisha	-6560
▁umurongo	-6561
▁wabivuze	-6562
▁yansabye	-6563
▁yavugaga	-6564
▁yavukiye	-6565
▁yifuzaga	-6566
Urashobora	-6567
bwongereza	-6568
garagambyo	-6569
shidikanya	-6570
▁Americans	-6571
▁Jerusalem	-6572
▁Ntiyigeze	-6573
▁Sinzigera	-6574
▁abapolisi	-6575
▁agerageza	-6576
▁amafranga	-6577
▁amashusho	-6578
▁azagaruka	-6579
▁beginning	-6580
▁bikoresho	-6581
▁bworoshye	-6582
▁byabereye	-6583
▁byingenzi	-6584
▁character	-6585
▁community	-6586
▁customers	-6587
▁cyingenzi	-6588
▁cyoroshye	-6589
▁discussed	-6590
▁employees	-6591
▁gishobora	-6592
▁gufungura	-6593
▁gutangira	-6594
▁ikiruhuko	-6595
▁ikizamini	-6596
▁imibereho	-6597
▁imiryango	-6598
▁imiterere	-6599
▁inguzanyo	-6600
▁inyamaswa	-6601
▁kubyemera	-6602
▁kumufasha	-6603
▁kumwemeza	-6604
▁kurushaho	-6605
▁kwitabira	-6606
▁nagombaga	-6607
▁ntakibazo	-6608
▁numuhungu	-6609
▁potential	-6610
▁ububabare	-6611
▁ubucuruzi	-6612
▁umusaruro	-6613
▁umwandiko	-6614
▁uwabikoze	-6615
▁wonderful	-6616
▁yisumbuye	-6617
shishikajwe	-6618
▁absolutely	-6619
▁bategereje	-6620
▁birakenewe	-6621
▁definitely	-6622
▁discussion	-6623
▁guhagarara	-6624
▁gukurikiza	-6625
▁kubikemura	-6626
▁kugaragara	-6627
▁kwamuganga	-6628
▁kwibagirwa	-6629
▁kwihangana	-6630
▁mubucuruzi	-6631
▁ntangiriro	-6632
▁porogaramu	-6633
▁tuzabikora	-6634
▁yagerageje	-6635
▁yatsindiye	-6636
▁Igitekerezo	-6637
▁Ikigaragara	-6638
▁Ntugashyire	-6639
▁electricity	-6640
▁environment	-6641
▁gushushanya	-6642
▁hakurikijwe	-6643
hangayikishwe	-6644
koranabuhanga	-6645
▁Abanyarwanda	-6646
▁ashishikajwe	-6647
▁conversation	-6648
▁kubisubiramo	-6649
▁mpuzamahanga	-6650
▁ntibashobora	-6651
▁ntidushobora	-6652
▁inyangamugayo	-6653
▁Ntiyashoboraga	-6654
▁Sinatekerezaga	-6655
Do	-6656
Pa	-6657
Pe	-6658
Un	-6659
ah	-6660
ip	-6661
nk	-6662
op	-6663
ph	-6664
▁3	-6665
Can	-6666
Nti	-6667
abi	-6668
are	-6669
arm	-6670
ata	-6671
bal	-6672
bed	-6673
clu	-6674
eli	-6675
ets	-6676
gal	-6677
ggs	-6678
gna	-6679
gni	-6680
gon	-6681
ham	-6682
imi	-6683
iye	-6684
iyo	-6685
myi	-6686
ndu	-6687
net	-6688
old	-6689
ony	-6690
ozi	-6691
rol	-6692
ror	-6693
tus	-6694
usu	-6695
vor	-6696
yle	-6697
▁??	-6698
▁Em	-6699
▁Mr	-6700
▁St	-6701
▁ch	-6702
▁em	-6703
▁pl	-6704
▁uw	-6705
Icya	-6706
Nari	-6707
Once	-6708
anic	-6709
anza	-6710
bane	-6711
bisa	-6712
ceri	-6713
cuti	-6714
date	-6715
elgi	-6716
etry	-6717
fess	-6718
fety	-6719
fuka	-6720
gard	-6721
geri	-6722
gozi	-6723
gree	-6724
hozi	-6725
hudi	-6726
ices	-6727
ingu	-6728
jima	-6729
kaga	-6730
kine	-6731
koma	-6732
line	-6733
ling	-6734
liya	-6735
logi	-6736
mani	-6737
mico	-6738
mida	-6739
mies	-6740
mije	-6741
miwe	-6742
mori	-6743
most	-6744
orge	-6745
pain	-6746
pima	-6747
pita	-6748
pite	-6749
rank	-6750
rego	-6751
rezo	-6752
ribu	-6753
rine	-6754
riri	-6755
riwe	-6756
sabe	-6757
shed	-6758
tuga	-6759
undi	-6760
vate	-6761
vert	-6762
wari	-6763
wise	-6764
wite	-6765
yane	-6766
yaye	-6767
yers	-6768
yond	-6769
yugu	-6770
zoro	-6771
▁Abi	-6772
▁Aga	-6773
▁Apo	-6774
▁Cor	-6775
▁Ejo	-6776
▁Eva	-6777
▁Gut	-6778
▁Ito	-6779
▁Jac	-6780
▁Jew	-6781
▁Kom	-6782
▁Rwa	-6783
▁Umw	-6784
▁Uwa	-6785
▁Was	-6786
▁Yet	-6787
▁abs	-6788
▁adu	-6789
▁aki	-6790
▁ale	-6791
▁bap	-6792
▁beg	-6793
▁bon	-6794
▁ced	-6795
▁cer	-6796
▁fat	-6797
▁fle	-6798
▁gen	-6799
▁hen	-6800
▁ifu	-6801
▁izu	-6802
▁joy	-6803
▁kar	-6804
▁low	-6805
▁mal	-6806
▁mer	-6807
▁mfu	-6808
▁mwu	-6809
▁ndu	-6810
▁nge	-6811
▁nur	-6812
▁pus	-6813
▁sat	-6814
▁sci	-6815
▁sil	-6816
▁sna	-6817
▁swa	-6818
▁tes	-6819
▁udu	-6820
▁une	-6821
▁wra	-6822
Nibyo	-6823
Nyuma	-6824
aling	-6825
batse	-6826
bundi	-6827
bupfu	-6828
bwaho	-6829
byaha	-6830
byuka	-6831
cated	-6832
clear	-6833
cture	-6834
cungu	-6835
cyaha	-6836
dened	-6837
desha	-6838
enced	-6839
eneye	-6840
hanzi	-6841
hinde	-6842
hondo	-6843
hyize	-6844
igihe	-6845
inary	-6846
ising	-6847
isoma	-6848
istry	-6849
jimye	-6850
koshi	-6851
kubye	-6852
kumwe	-6853
kunga	-6854
lande	-6855
lting	-6856
mbizi	-6857
mbona	-6858
misha	-6859
mujyi	-6860
myaka	-6861
ngana	-6862
nitse	-6863
orted	-6864
pagne	-6865
ramba	-6866
rance	-6867
range	-6868
reets	-6869
riage	-6870
rwamo	-6871
rwana	-6872
sanze	-6873
shima	-6874
tians	-6875
twazo	-6876
twite	-6877
verin	-6878
yandi	-6879
yange	-6880
▁Amas	-6881
▁Ange	-6882
▁Appa	-6883
▁Bose	-6884
▁Both	-6885
▁Dore	-6886
▁Heat	-6887
▁Imyi	-6888
▁Jose	-6889
▁Make	-6890
▁Mama	-6891
▁Mana	-6892
▁Mura	-6893
▁Muru	-6894
▁None	-6895
▁With	-6896
▁Word	-6897
▁Yaha	-6898
▁agen	-6899
▁akan	-6900
▁alle	-6901
▁amwe	-6902
▁argu	-6903
▁arms	-6904
▁arya	-6905
▁assu	-6906
▁baru	-6907
▁bear	-6908
▁biti	-6909
▁bomb	-6910
▁camp	-6911
▁coun	-6912
▁eggs	-6913
▁eric	-6914
▁flag	-6915
▁focu	-6916
▁foto	-6917
▁gran	-6918
▁grew	-6919
▁guku	-6920
▁hata	-6921
▁ijwi	-6922
▁imis	-6923
▁impu	-6924
▁itan	-6925
▁joke	-6926
▁juru	-6927
▁kane	-6928
▁kano	-6929
▁kawa	-6930
▁kiss	-6931
▁kuwu	-6932
▁kuya	-6933
▁lady	-6934
▁lies	-6935
▁lone	-6936
▁mafi	-6937
▁mess	-6938
▁mute	-6939
▁naga	-6940
▁obey	-6941
▁path	-6942
▁race	-6943
▁repu	-6944
▁rice	-6945
▁rira	-6946
▁rope	-6947
▁shin	-6948
▁spin	-6949
▁stri	-6950
▁tara	-6951
▁thir	-6952
▁trip	-6953
▁tuba	-6954
▁urwi	-6955
▁valu	-6956
▁vari	-6957
▁verb	-6958
▁viru	-6959
▁wamu	-6960
▁waru	-6961
▁yera	-6962
▁yuyu	-6963
▁zaba	-6964
▁ziki	-6965
▁ziza	-6966
biligi	-6967
bility	-6968
buzima	-6969
bwirwa	-6970
common	-6971
curuza	-6972
endera	-6973
fashan	-6974
fashwe	-6975
fessor	-6976
foromo	-6977
garika	-6978
gereye	-6979
gerous	-6980
gorana	-6981
himbye	-6982
humura	-6983
imyaka	-6984
injiza	-6985
ipment	-6986
itumba	-6987
kariye	-6988
kemure	-6989
korere	-6990
kraine	-6991
kundwa	-6992
kureba	-6993
kwanga	-6994
likely	-6995
mburwa	-6996
minist	-6997
mother	-6998
nesses	-6999
niture	-7000
ournal	-7001
panied	-7002
rabura	-7003
ranije	-7004
rebaga	-7005
rekezo	-7006
rigera	-7007
ruhuka	-7008
rwanya	-7009
sekeje	-7010
shatse	-7011
shinwa	-7012
sitate	-7013
takaza	-7014
tangwa	-7015
tually	-7016
vation	-7017
yahudi	-7018
yoboro	-7019
▁Abisi	-7020
▁Bamwe	-7021
▁Belgi	-7022
▁Bwana	-7023
▁Byari	-7024
▁Kelly	-7025
▁Kenny	-7026
▁Kinya	-7027
▁Nanga	-7028
▁Nanze	-7029
▁Ndimo	-7030
▁Roger	-7031
▁Spain	-7032
▁Today	-7033
▁Twese	-7034
▁agere	-7035
▁ahead	-7036
▁ahita	-7037
▁along	-7038
▁analy	-7039
▁answe	-7040
▁apply	-7041
▁aramu	-7042
▁ariwe	-7043
▁autho	-7044
▁aware	-7045
▁azize	-7046
▁bajya	-7047
▁banki	-7048
▁bashi	-7049
▁below	-7050
▁birds	-7051
▁byara	-7052
▁candi	-7053
▁catch	-7054
▁chain	-7055
▁cheap	-7056
▁consu	-7057
▁conte	-7058
▁convi	-7059
▁cried	-7060
▁cyabo	-7061
▁debts	-7062
▁drank	-7063
▁drunk	-7064
▁exams	-7065
▁feels	-7066
▁field	-7067
▁forei	-7068
▁games	-7069
▁green	-7070
▁gutyo	-7071
▁habit	-7072
▁hopes	-7073
▁ibisa	-7074
▁igera	-7075
▁igura	-7076
▁ikawa	-7077
▁impin	-7078
▁inten	-7079
▁isano	-7080
▁isura	-7081
▁iteye	-7082
▁itike	-7083
▁ivuga	-7084
▁izihe	-7085
▁jesus	-7086
▁kumwi	-7087
▁kundi	-7088
▁loose	-7089
▁menya	-7090
▁mvura	-7091
▁mvuye	-7092
▁mwene	-7093
▁named	-7094
▁ndege	-7095
▁ngoro	-7096
▁nkeya	-7097
▁ntuki	-7098
▁ntuye	-7099
▁nyama	-7100
▁nziko	-7101
▁pages	-7102
▁proud	-7103
▁rains	-7104
▁refle	-7105
▁rwawe	-7106
▁ryacu	-7107
▁sacri	-7108
▁saved	-7109
▁sharp	-7110
▁shati	-7111
▁shown	-7112
▁signs	-7113
▁stade	-7114
▁sword	-7115
▁talks	-7116
▁thief	-7117
▁throw	-7118
▁trade	-7119
▁twara	-7120
▁ubuhe	-7121
▁uhari	-7122
▁uhuze	-7123
▁ukiri	-7124
▁umuti	-7125
▁urugo	-7126
▁usual	-7127
▁utabi	-7128
▁video	-7129
▁weren	-7130
▁worse	-7131
▁worst	-7132
▁yanyu	-7133
▁yanze	-7134
▁yibyo	-7135
▁yishe	-7136
▁yombi	-7137
However	-7138
Instead	-7139
arantee	-7140
bikunda	-7141
blished	-7142
bupfura	-7143
dufasha	-7144
fashaga	-7145
gusabye	-7146
hakanye	-7147
inginga	-7148
iposita	-7149
kandida	-7150
kishije	-7151
kwemera	-7152
liament	-7153
mangira	-7154
mbaraga	-7155
menyera	-7156
mererwa	-7157
midated	-7158
musabye	-7159
sanduku	-7160
sohotse	-7161
tegetse	-7162
twaramo	-7163
yikunda	-7164
▁Africa	-7165
▁Anyone	-7166
▁Budage	-7167
▁Claude	-7168
▁George	-7169
▁Inteko	-7170
▁Ishuri	-7171
▁Kagame	-7172
▁Madamu	-7173
▁Nahuye	-7174
▁Nkwiye	-7175
▁Ntutin	-7176
▁Umunsi	-7177
▁Umunya	-7178
▁abanzi	-7179
▁advert	-7180
▁advise	-7181
▁akanya	-7182
▁almost	-7183
▁amatwi	-7184
▁apples	-7185
▁assign	-7186
▁atwite	-7187
▁babaye	-7188
▁babizi	-7189
▁bagabo	-7190
▁bamaze	-7191
▁bavuze	-7192
▁beyond	-7193
▁bishyi	-7194
▁broken	-7195
▁bufite	-7196
▁bugufi	-7197
▁buhoro	-7198
▁butare	-7199
▁button	-7200
▁center	-7201
▁charge	-7202
▁claude	-7203
▁colors	-7204
▁decide	-7205
▁demand	-7206
▁destro	-7207
▁dosiye	-7208
▁finger	-7209
▁gishya	-7210
▁gushyi	-7211
▁hakiri	-7212
▁hataba	-7213
▁hazaba	-7214
▁hearts	-7215
▁humble	-7216
▁identi	-7217
▁inzego	-7218
▁ishize	-7219
▁izagwa	-7220
▁joined	-7221
▁karita	-7222
▁kibaho	-7223
▁kiraro	-7224
▁kirere	-7225
▁kubaka	-7226
▁kubura	-7227
▁kumara	-7228
▁kumena	-7229
▁kumera	-7230
▁kuriyo	-7231
▁kutaza	-7232
▁kwandi	-7233
▁kwanga	-7234
▁matayo	-7235
▁metero	-7236
▁mirimo	-7237
▁mumaso	-7238
▁munani	-7239
▁naguze	-7240
▁nariye	-7241
▁nkunze	-7242
▁opened	-7243
▁oppose	-7244
▁papers	-7245
▁parked	-7246
▁phones	-7247
▁posita	-7248
▁practi	-7249
▁preach	-7250
▁profit	-7251
▁rather	-7252
▁record	-7253
▁repres	-7254
▁rurimi	-7255
▁safety	-7256
▁separa	-7257
▁showed	-7258
▁slowly	-7259
▁speech	-7260
▁street	-7261
▁sugges	-7262
▁tagisi	-7263
▁taught	-7264
▁temple	-7265
▁tubona	-7266
▁ufashe	-7267
▁umenya	-7268
▁umwere	-7269
▁umwete	-7270
▁wagiye	-7271
▁waited	-7272
▁walked	-7273
▁wiruka	-7274
▁writer	-7275
▁yahise	-7276
▁yaramu	-7277
▁yasaga	-7278
▁yavuye	-7279
▁yellow	-7280
▁yihuta	-7281
bisanzwe	-7282
bisubizo	-7283
byumvise	-7284
derstand	-7285
gerageze	-7286
gukorera	-7287
herereza	-7288
inziriye	-7289
kubikora	-7290
national	-7291
nication	-7292
ordinary	-7293
perature	-7294
sobanuro	-7295
verinoma	-7296
▁Article	-7297
▁Espagne	-7298
▁Inshuti	-7299
▁Nasanze	-7300
▁Nzaguha	-7301
▁Uribuka	-7302
▁account	-7303
▁accused	-7304
▁airport	-7305
▁akorera	-7306
▁amaguru	-7307
▁amasomo	-7308
▁amazing	-7309
▁ancient	-7310
▁ankunda	-7311
▁answers	-7312
▁apostle	-7313
▁arrives	-7314
▁arukuri	-7315
▁asigaye	-7316
▁atameze	-7317
▁azasura	-7318
▁bahungu	-7319
▁bakunze	-7320
▁belongs	-7321
▁bitinze	-7322
▁bottles	-7323
▁byihuse	-7324
▁closely	-7325
▁compani	-7326
▁cyabaye	-7327
▁damaged	-7328
▁disappo	-7329
▁drawing	-7330
▁driving	-7331
▁elected	-7332
▁enemies	-7333
▁entered	-7334
▁forgive	-7335
▁granted	-7336
▁gufatwa	-7337
▁hakurya	-7338
▁ibitaro	-7339
▁ihagaze	-7340
▁ikaramu	-7341
▁ishyaka	-7342
▁kingdom	-7343
▁kubanza	-7344
▁kunyura	-7345
▁kutarya	-7346
▁largest	-7347
▁mahanga	-7348
▁mbaraga	-7349
▁mbikora	-7350
▁mbonera	-7351
▁mfuruka	-7352
▁mubintu	-7353
▁mugomba	-7354
▁mukunda	-7355
▁mumunsi	-7356
▁mumyaka	-7357
▁nibyiza	-7358
▁nkimara	-7359
▁ntibazi	-7360
▁ntigeze	-7361
▁ntiyari	-7362
▁nyakuri	-7363
▁nzabona	-7364
▁nzagira	-7365
▁parking	-7366
▁patient	-7367
▁percent	-7368
▁predict	-7369
▁quality	-7370
▁raining	-7371
▁reached	-7372
▁rubanza	-7373
▁rugendo	-7374
▁soldier	-7375
▁streets	-7376
▁twakoze	-7377
▁twigeze	-7378
▁ubumuga	-7379
▁ubutaka	-7380
▁ugereyo	-7381
▁umubano	-7382
▁umukene	-7383
▁umwenda	-7384
▁urwanda	-7385
▁usanzwe	-7386
▁wabwiye	-7387
▁walking	-7388
▁wanting	-7389
▁watched	-7390
▁witonze	-7391
▁yambaye	-7392
bishobora	-7393
herekejwe	-7394
hidikanya	-7395
ishingiye	-7396
kwishyura	-7397
rigerator	-7398
teganyaga	-7399
yamahanga	-7400
▁Ababyeyi	-7401
▁Assembly	-7402
▁Children	-7403
▁National	-7404
▁Ndangije	-7405
▁Ntushaka	-7406
▁Saturday	-7407
▁Wabwirwa	-7408
▁administ	-7409
▁amukunda	-7410
▁apostles	-7411
▁aramutse	-7412
▁ashoboye	-7413
▁atagomba	-7414
▁atandatu	-7415
▁bakomeye	-7416
▁biragoye	-7417
▁byonyine	-7418
▁ceremony	-7419
▁citizens	-7420
▁cyubupfu	-7421
▁district	-7422
▁ejobundi	-7423
▁favorite	-7424
▁followed	-7425
▁gisubizo	-7426
▁gukuraho	-7427
▁gusukura	-7428
▁hesitate	-7429
▁holidays	-7430
▁horrible	-7431
▁hundreds	-7432
▁ibirenge	-7433
▁ikiganza	-7434
▁innocent	-7435
▁karindwi	-7436
▁kubeshya	-7437
▁kubireka	-7438
▁kubonana	-7439
▁kukureba	-7440
▁kuzamuka	-7441
▁learning	-7442
▁mashusho	-7443
▁mategeko	-7444
▁ndamutse	-7445
▁neighbor	-7446
▁nibeshye	-7447
▁ntugomba	-7448
▁pictures	-7449
▁potatoes	-7450
▁precious	-7451
▁promised	-7452
▁properly	-7453
▁punished	-7454
▁religion	-7455
▁saddened	-7456
▁siblings	-7457
▁sleeping	-7458
▁soldiers	-7459
▁straight	-7460
▁strength	-7461
▁tubikora	-7462
▁ubuhanga	-7463
▁ubushake	-7464
▁umubwire	-7465
▁umuhanga	-7466
▁umwarimu	-7467
▁uncommon	-7468
▁unlikely	-7469
▁utitonze	-7470
▁wondered	-7471
▁yahisemo	-7472
▁yakomeje	-7473
▁yarakaye	-7474
▁yatanzwe	-7475
▁yerekana	-7476
▁yerekeza	-7477
▁yigihugu	-7478
▁yihariye	-7479
structions	-7480
▁Abaturage	-7481
▁Bizatwara	-7482
▁Christian	-7483
▁Haracyari	-7484
▁Ntampamvu	-7485
▁Ntugakore	-7486
▁Umuryango	-7487
▁abayobozi	-7488
▁abigishwa	-7489
▁accidents	-7490
▁amabaruwa	-7491
▁asobanura	-7492
▁azarakara	-7493
▁badashaka	-7494
▁bakoresha	-7495
▁birambuye	-7496
▁classroom	-7497
▁countries	-7498
▁dangerous	-7499
▁direction	-7500
▁encourage	-7501
▁equipment	-7502
▁expecting	-7503
▁furniture	-7504
▁guarantee	-7505
▁gucuranga	-7506
▁gukundana	-7507
▁gutembera	-7508
▁ibiganiro	-7509
▁ibisanzwe	-7510
▁ibisubizo	-7511
▁ibyishimo	-7512
▁ibyumweru	-7513
▁including	-7514
▁investiga	-7515
▁inyigisho	-7516
▁iperereza	-7517
▁isosiyete	-7518
▁kirimbuzi	-7519
▁kugabanya	-7520
▁kumubwira	-7521
▁kumuhanda	-7522
▁kuririmba	-7523
▁listening	-7524
▁nakubwiye	-7525
▁nibagirwa	-7526
▁ntegereje	-7527
▁nzagaruka	-7528
▁nzamubona	-7529
▁otherwise	-7530
▁rusengero	-7531
▁somewhere	-7532
▁suffering	-7533
▁traveling	-7534
▁ubushyuhe	-7535
▁ubutabera	-7536
▁umudugudu	-7537
▁uzabivuga	-7538
▁wondering	-7539
▁yasohotse	-7540
Birashoboka	-7541
ishyigikiye	-7542
rengerazuba	-7543
▁Apparently	-7544
▁Minisitiri	-7545
▁Nategereje	-7546
▁Ndashobora	-7547
▁Ntukingure	-7548
▁Sinzongera	-7549
▁arashobora	-7550
▁asinziriye	-7551
▁atashakaga	-7552
▁batekereza	-7553
▁bidasanzwe	-7554
▁bimenyetso	-7555
▁biroroshye	-7556
▁byaturutse	-7557
▁gushyiraho	-7558
▁ibicuruzwa	-7559
▁ibitagenda	-7560
▁myambarire	-7561
▁population	-7562
▁profession	-7563
▁protection	-7564
▁punishment	-7565
▁ubutegetsi	-7566
▁ubwiherero	-7567
▁umwamikazi	-7568
▁urubyiruko	-7569
▁yumuryango	-7570
▁Abanyeshuri	-7571
▁Abisirayeli	-7572
▁Kinyarwanda	-7573
▁Ntibikenewe	-7574
▁Ubwongereza	-7575
▁abavandimwe	-7576
▁allegations	-7577
▁association	-7578
▁biraryoshye	-7579
▁birashobora	-7580
▁competition	-7581
▁explanation	-7582
▁grandmother	-7583
▁intimidated	-7584
▁irashyushye	-7585
▁kubashimira	-7586
▁kubikubwira	-7587
▁kumafaranga	-7588
▁supermarket	-7589
▁temperature	-7590
▁turashobora	-7591
▁gitandukanye	-7592
▁gutandukanya	-7593
▁kubiganiraho	-7594
▁kubisobanura	-7595
▁ntibishoboka	-7596
▁refrigerator	-7597
▁simbyitayeho	-7598
▁yakoreshejwe	-7599
▁Nzakumenyesha	-7600
▁Turashoboragu	-7601
▁Uburenganzira	-7602
▁washushanyije	-7603
hangayikishijwe	-7604
▁guhangayikishwa	-7605
IS	-7606
TM	-7607
ay	-7608
ex	-7609
os	-7610
tw	-7611
yn	-7612
▁5	-7613
▁Z	-7614
,""	-7615
Ama	-7616
But	-7617
Des	-7618
Due	-7619
Ejo	-7620
Nda	-7621
Now	-7622
Oya	-7623
Tom	-7624
Ubu	-7625
Uru	-7626
ahu	-7627
ali	-7628
ara	-7629
ave	-7630
cis	-7631
cki	-7632
cta	-7633
dam	-7634
dog	-7635
dow	-7636
dut	-7637
ece	-7638
eva	-7639
ffy	-7640
fra	-7641
gwe	-7642
hun	-7643
hut	-7644
ido	-7645
ims	-7646
irs	-7647
isy	-7648
iya	-7649
jor	-7650
ker	-7651
key	-7652
lty	-7653
ndo	-7654
own	-7655
pla	-7656
por	-7657
sec	-7658
sty	-7659
sus	-7660
swe	-7661
thi	-7662
tsu	-7663
uma	-7664
urp	-7665
val	-7666
yor	-7667
zoo	-7668
zzo	-7669
▁Ac	-7670
▁CD	-7671
▁Di	-7672
▁Dr	-7673
▁El	-7674
▁OK	-7675
▁PM	-7676
▁Th	-7677
▁UK	-7678
▁UR	-7679
▁ak	-7680
▁ci	-7681
▁iy	-7682
▁ji	-7683
▁ll	-7684
Come	-7685
Ubwa	-7686
amas	-7687
anas	-7688
asha	-7689
atsi	-7690
beri	-7691
bert	-7692
bile	-7693
bire	-7694
bugo	-7695
bure	-7696
buto	-7697
care	-7698
cell	-7699
ciwe	-7700
crew	-7701
dahi	-7702
doda	-7703
ella	-7704
enyi	-7705
ever	-7706
fana	-7707
gaga	-7708
garu	-7709
gaze	-7710
gema	-7711
geni	-7712
gese	-7713
gezi	-7714
ghte	-7715
gina	-7716
gnes	-7717
goya	-7718
guel	-7719
gufu	-7720
guhe	-7721
guzi	-7722
hema	-7723
heri	-7724
hile	-7725
hill	-7726
hina	-7727
hoho	-7728
iced	-7729
iche	-7730
ides	-7731
ired	-7732
jana	-7733
jugu	-7734
kama	-7735
kawa	-7736
kers	-7737
kind	-7738
koka	-7739
kono	-7740
lash	-7741
lier	-7742
lisi	-7743
lize	-7744
ller	-7745
load	-7746
maga	-7747
mail	-7748
mesa	-7749
moni	-7750
moso	-7751
mote	-7752
muha	-7753
muhe	-7754
nara	-7755
nika	-7756
oder	-7757
ogle	-7758
oken	-7759
okka	-7760
omed	-7761
omye	-7762
onci	-7763
ondi	-7764
oned	-7765
orks	-7766
otsi	-7767
poli	-7768
pura	-7769
puta	-7770
rabo	-7771
rake	-7772
rani	-7773
rasa	-7774
reci	-7775
rely	-7776
reme	-7777
reze	-7778
rial	-7779
rima	-7780
riod	-7781
rodu	-7782
roha	-7783
roni	-7784
rota	-7785
saka	-7786
sted	-7787
stle	-7788
stra	-7789
tali	-7790
tebe	-7791
tere	-7792
that	-7793
tifi	-7794
tiro	-7795
toye	-7796
tugu	-7797
tuni	-7798
turo	-7799
vels	-7800
vers	-7801
vest	-7802
vily	-7803
vuta	-7804
vuzi	-7805
wacu	-7806
weho	-7807
year	-7808
yera	-7809
yona	-7810
yota	-7811
yoto	-7812
zane	-7813
zewe	-7814
zoka	-7815
▁ATM	-7816
▁Aka	-7817
▁Asa	-7818
▁Bad	-7819
▁Dad	-7820
▁Day	-7821
▁Ein	-7822
▁Eve	-7823
▁Exp	-7824
▁Har	-7825
▁Has	-7826
▁Her	-7827
▁Him	-7828
▁Imp	-7829
▁Isn	-7830
▁Mut	-7831
▁Nin	-7832
▁Nku	-7833
▁Put	-7834
▁Res	-7835
▁See	-7836
▁Ter	-7837
▁Tha	-7838
▁Tit	-7839
▁Ttu	-7840
▁Twi	-7841
▁Whi	-7842
▁Yan	-7843
▁act	-7844
▁aku	-7845
▁ane	-7846
▁ark	-7847
▁bud	-7848
▁cap	-7849
▁cir	-7850
▁cla	-7851
▁eng	-7852
▁evi	-7853
▁fli	-7854
▁fre	-7855
▁git	-7856
▁ham	-7857
▁iga	-7858
▁igu	-7859
▁ihe	-7860
▁ino	-7861
▁kon	-7862
▁kor	-7863
▁oli	-7864
▁owe	-7865
▁pal	-7866
▁phy	-7867
▁pin	-7868
▁pis	-7869
▁sew	-7870
▁ske	-7871
▁sli	-7872
▁ton	-7873
▁tro	-7874
▁tur	-7875
▁uwi	-7876
▁wel	-7877
▁yen	-7878
▁zan	-7879
First	-7880
Iyaba	-7881
Kandi	-7882
Kenny	-7883
These	-7884
acher	-7885
andan	-7886
anire	-7887
asita	-7888
asses	-7889
banyi	-7890
bisha	-7891
blish	-7892
board	-7893
bukwe	-7894
bulan	-7895
butse	-7896
butso	-7897
bwiza	-7898
canyi	-7899
cisco	-7900
ckily	-7901
ellia	-7902
evara	-7903
gence	-7904
genga	-7905
genza	-7906
gners	-7907
habwa	-7908
hatse	-7909
hered	-7910
hutse	-7911
icide	-7912
idoka	-7913
ijoro	-7914
ineza	-7915
isiyo	-7916
kendi	-7917
kespe	-7918
kinji	-7919
kwiza	-7920
lling	-7921
mbika	-7922
merwa	-7923
milar	-7924
moned	-7925
moshi	-7926
mvire	-7927
night	-7928
perty	-7929
pless	-7930
ralia	-7931
ranto	-7932
rembo	-7933
remwa	-7934
renzi	-7935
rizwa	-7936
sanya	-7937
shaje	-7938
stein	-7939
tanze	-7940
thema	-7941
tsumi	-7942
tutsi	-7943
twaro	-7944
ubiye	-7945
ubiza	-7946
ukari	-7947
usual	-7948
wanye	-7949
yanza	-7950
yuzwe	-7951
ziran	-7952
zwaga	-7953
▁Anti	-7954
▁Aust	-7955
▁Come	-7956
▁Cuba	-7957
▁East	-7958
▁Espe	-7959
▁Gari	-7960
▁Gene	-7961
▁Guma	-7962
▁Juan	-7963
▁July	-7964
▁Kaba	-7965
▁Kana	-7966
▁Kate	-7967
▁Kora	-7968
▁Kore	-7969
▁Last	-7970
▁Mart	-7971
▁Mike	-7972
▁Nabi	-7973
▁Nile	-7974
▁Ntum	-7975
▁Once	-7976
▁Peru	-7977
▁Sand	-7978
▁Stay	-7979
▁Tito	-7980
▁Umun	-7981
▁Urwo	-7982
▁Yumi	-7983
▁abis	-7984
▁alex	-7985
▁andi	-7986
▁babu	-7987
▁baku	-7988
▁bapt	-7989
▁bass	-7990
▁bate	-7991
▁bath	-7992
▁bice	-7993
▁bika	-7994
▁biki	-7995
▁bird	-7996
▁bran	-7997
▁carp	-7998
▁code	-7999
▁coll	-8000
▁crow	-8001
▁drew	-8002
▁drop	-8003
▁fagi	-8004
▁fool	-8005
▁gain	-8006
▁gate	-8007
▁gaze	-8008
▁gika	-8009
▁goal	-8010
▁golf	-8011
▁hang	-8012
▁hehe	-8013
▁hell	-8014
▁hide	-8015
▁hill	-8016
▁ihan	-8017
▁ikin	-8018
▁illi	-8019
▁inse	-8020
▁iran	-8021
▁izwi	-8022
▁keke	-8023
▁kept	-8024
▁kilo	-8025
▁kivu	-8026
▁kosa	-8027
▁koza	-8028
▁kura	-8029
▁lamp	-8030
▁lazy	-8031
▁logi	-8032
▁loss	-8033
▁mark	-8034
▁math	-8035
▁mole	-8036
▁moya	-8037
▁muku	-8038
▁nayo	-8039
▁ndan	-8040
▁nine	-8041
▁nitu	-8042
▁niya	-8043
▁noon	-8044
▁nuru	-8045
▁offi	-8046
▁page	-8047
▁pool	-8048
▁prog	-8049
▁reci	-8050
▁reje	-8051
▁ride	-8052
▁ruta	-8053
▁scre	-8054
▁sear	-8055
▁seat	-8056
▁seek	-8057
▁situ	-8058
▁skin	-8059
▁soci	-8060
▁sofa	-8061
▁soil	-8062
▁solu	-8063
▁suit	-8064
▁tapi	-8065
▁town	-8066
▁tuga	-8067
▁uran	-8068
▁utan	-8069
▁uzwi	-8070
▁vote	-8071
▁wash	-8072
▁wayi	-8073
▁wera	-8074
▁west	-8075
▁yaka	-8076
▁yere	-8077
▁yiga	-8078
▁yita	-8079
▁yiyo	-8080
▁zacu	-8081
▁zere	-8082
▁zumu	-8083
Ngwino	-8084
Noneho	-8085
People	-8086
abandi	-8087
abantu	-8088
anduye	-8089
arwaye	-8090
atrick	-8091
banuka	-8092
bemera	-8093
beriki	-8094
biriye	-8095
bonaga	-8096
boneye	-8097
brella	-8098
bugiri	-8099
bugogo	-8100
coming	-8101
cujije	-8102
dashyi	-8103
ending	-8104
firmed	-8105
gesera	-8106
girika	-8107
gizemo	-8108
gorane	-8109
gurube	-8110
haring	-8111
hokana	-8112
ingana	-8113
inyaga	-8114
isenyi	-8115
jugira	-8116
kamali	-8117
kinira	-8118
koraga	-8119
kosora	-8120
kunzwe	-8121
kurura	-8122
manaho	-8123
mbered	-8124
mennye	-8125
merere	-8126
mvisha	-8127
nganya	-8128
ongeye	-8129
ongora	-8130
pended	-8131
perate	-8132
plemen	-8133
rakaye	-8134
rekuye	-8135
shimye	-8136
sigaye	-8137
stomed	-8138
suhuza	-8139
tegere	-8140
titude	-8141
tumire	-8142
umuntu	-8143
umwami	-8144
urupfu	-8145
vented	-8146
vugane	-8147
vugira	-8148
yemeje	-8149
yoboye	-8150
zanira	-8151
zukuru	-8152
▁After	-8153
▁Amaze	-8154
▁Brown	-8155
▁Flash	-8156
▁Great	-8157
▁Hokka	-8158
▁Ijoro	-8159
▁Inter	-8160
▁Ivrin	-8161
▁James	-8162
▁Kyoto	-8163
▁Leave	-8164
▁Mbere	-8165
▁Miche	-8166
▁Minis	-8167
▁Mount	-8168
▁Mwuka	-8169
▁Ndaba	-8170
▁Ntaho	-8171
▁Ntazi	-8172
▁Ntuza	-8173
▁Osaka	-8174
▁Peter	-8175
▁Rimwe	-8176
▁Sinza	-8177
▁Titus	-8178
▁Twari	-8179
▁World	-8180
▁Would	-8181
▁aband	-8182
▁akina	-8183
▁alarm	-8184
▁amagi	-8185
▁ameza	-8186
▁amoko	-8187
▁argue	-8188
▁ariyo	-8189
▁atara	-8190
▁avuye	-8191
▁betra	-8192
▁bitwa	-8193
▁blind	-8194
▁byamu	-8195
▁byeri	-8196
▁byiki	-8197
▁byimi	-8198
▁calls	-8199
▁climb	-8200
▁corks	-8201
▁costs	-8202
▁cover	-8203
▁crash	-8204
▁crime	-8205
▁curry	-8206
▁cyaba	-8207
▁cyara	-8208
▁cyuzi	-8209
▁daily	-8210
▁delay	-8211
▁devil	-8212
▁dirty	-8213
▁dying	-8214
▁final	-8215
▁foods	-8216
▁formu	-8217
▁gifts	-8218
▁girlf	-8219
▁goals	-8220
▁goods	-8221
▁grace	-8222
▁greed	-8223
▁guard	-8224
▁guest	-8225
▁guhan	-8226
▁ibibi	-8227
▁ibise	-8228
▁idini	-8229
▁igita	-8230
▁igoye	-8231
▁ihari	-8232
▁ikiru	-8233
▁imaze	-8234
▁imeri	-8235
▁inevi	-8236
▁iyihe	-8237
▁jiffy	-8238
▁kashe	-8239
▁kings	-8240
▁kumwu	-8241
▁kwari	-8242
▁kwiba	-8243
▁lakes	-8244
▁lands	-8245
▁logan	-8246
▁lover	-8247
▁major	-8248
▁mbega	-8249
▁meets	-8250
▁mercy	-8251
▁miles	-8252
▁misun	-8253
▁mpita	-8254
▁mubya	-8255
▁nabyo	-8256
▁namba	-8257
▁nange	-8258
▁ndaku	-8259
▁ndimi	-8260
▁ngira	-8261
▁ngura	-8262
▁nimwe	-8263
▁nkaba	-8264
▁nkeka	-8265
▁nkiri	-8266
▁noisy	-8267
▁ntawu	-8268
▁ntibu	-8269
▁ntimu	-8270
▁ntiru	-8271
▁ntiyi	-8272
▁ntoya	-8273
▁nurse	-8274
▁nyamu	-8275
▁relie	-8276
▁reply	-8277
▁rises	-8278
▁rooms	-8279
▁ruled	-8280
▁ryaba	-8281
▁shall	-8282
▁shave	-8283
▁south	-8284
▁space	-8285
▁staff	-8286
▁stamp	-8287
▁stole	-8288
▁stood	-8289
▁sugar	-8290
▁touch	-8291
▁track	-8292
▁truly	-8293
▁tujya	-8294
▁uhora	-8295
▁umuco	-8296
▁umune	-8297
▁unfor	-8298
▁urebe	-8299
▁uriku	-8300
▁utaje	-8301
▁utuye	-8302
▁uzaza	-8303
▁victi	-8304
▁willy	-8305
▁yabyo	-8306
▁zindi	-8307
Despite	-8308
agaciro	-8309
byibuka	-8310
byicuza	-8311
byitaho	-8312
ctories	-8313
dahigwa	-8314
diganye	-8315
fitanye	-8316
funguye	-8317
gezweho	-8318
gishaka	-8319
herejwe	-8320
hingiro	-8321
hishozi	-8322
ination	-8323
inshuti	-8324
kanguka	-8325
kingura	-8326
komanze	-8327
komotse	-8328
kundiro	-8329
kurusha	-8330
mpiyona	-8331
mployed	-8332
mvikane	-8333
ngombwa	-8334
pantaro	-8335
rashaka	-8336
ringira	-8337
rohamye	-8338
rushaho	-8339
sengera	-8340
shijeho	-8341
shyingi	-8342
teganyi	-8343
teganyo	-8344
tondera	-8345
tondere	-8346
tunguwe	-8347
yigisha	-8348
zamutse	-8349
▁Behind	-8350
▁Father	-8351
▁Gisaka	-8352
▁Hagati	-8353
▁Imbere	-8354
▁Inyuma	-8355
▁Israel	-8356
▁Karere	-8357
▁Kellia	-8358
▁Kizito	-8359
▁Kubera	-8360
▁Kugira	-8361
▁Kuvuga	-8362
▁Mahoro	-8363
▁Miller	-8364
▁Mukura	-8365
▁Mumuhe	-8366
▁Nagiye	-8367
▁Nagoya	-8368
▁Nanjye	-8369
▁Nukuri	-8370
▁Nyanza	-8371
▁Savior	-8372
▁School	-8373
▁Tuzaba	-8374
▁Umwaka	-8375
▁Wibuke	-8376
▁abonye	-8377
▁accoun	-8378
▁accuse	-8379
▁africa	-8380
▁amount	-8381
▁announ	-8382
▁anyway	-8383
▁apfuye	-8384
▁artist	-8385
▁atarya	-8386
▁bagera	-8387
▁bagira	-8388
▁bakina	-8389
▁bakiri	-8390
▁bameze	-8391
▁bashyi	-8392
▁bateri	-8393
▁begins	-8394
▁bemera	-8395
▁bibera	-8396
▁bihuha	-8397
▁birego	-8398
▁bitaba	-8399
▁bitari	-8400
▁bitatu	-8401
▁burned	-8402
▁butayu	-8403
▁bwange	-8404
▁cancer	-8405
▁caught	-8406
▁cheese	-8407
▁chosen	-8408
▁clouds	-8409
▁compli	-8410
▁conclu	-8411
▁cooked	-8412
▁crying	-8413
▁cyitwa	-8414
▁debate	-8415
▁defend	-8416
▁denied	-8417
▁desert	-8418
▁desire	-8419
▁engine	-8420
▁factor	-8421
▁forest	-8422
▁former	-8423
▁genera	-8424
▁gisigo	-8425
▁gituma	-8426
▁guhaha	-8427
▁gusiga	-8428
▁guteza	-8429
▁habamo	-8430
▁hagira	-8431
▁henshi	-8432
▁hidden	-8433
▁iPhone	-8434
▁ibinyo	-8435
▁iburyo	-8436
▁icyuma	-8437
▁ikonje	-8438
▁images	-8439
▁imbeba	-8440
▁imbohe	-8441
▁imbuto	-8442
▁imibon	-8443
▁indege	-8444
▁indimi	-8445
▁ingero	-8446
▁inside	-8447
▁inyota	-8448
▁irindi	-8449
▁itanga	-8450
▁kimeze	-8451
▁kizaza	-8452
▁kristo	-8453
▁kubaha	-8454
▁kubusa	-8455
▁kuriya	-8456
▁kwishi	-8457
▁larger	-8458
▁lights	-8459
▁lonely	-8460
▁manage	-8461
▁mariya	-8462
▁member	-8463
▁memori	-8464
▁meters	-8465
▁misoro	-8466
▁mobile	-8467
▁mumata	-8468
▁murder	-8469
▁muriyo	-8470
▁nabona	-8471
▁nabuze	-8472
▁navuga	-8473
▁ndumva	-8474
▁nigice	-8475
▁nizeye	-8476
▁notice	-8477
▁nsanga	-8478
▁nyungu	-8479
▁nzajya	-8480
▁offend	-8481
▁opposi	-8482
▁orange	-8483
▁organi	-8484
▁outfit	-8485
▁period	-8486
▁perman	-8487
▁permit	-8488
▁played	-8489
▁policy	-8490
▁polisi	-8491
▁pushed	-8492
▁radiyo	-8493
▁recent	-8494
▁resign	-8495
▁ririya	-8496
▁runini	-8497
▁sasita	-8498
▁schedu	-8499
▁shadow	-8500
▁shower	-8501
▁silent	-8502
▁spirit	-8503
▁spoken	-8504
▁sports	-8505
▁starts	-8506
▁stolen	-8507
▁tongue	-8508
▁tukaba	-8509
▁tutara	-8510
▁tuvuga	-8511
▁tuvuge	-8512
▁twelve	-8513
▁ubukwe	-8514
▁ubwami	-8515
▁umujyi	-8516
▁umunwa	-8517
▁usanga	-8518
▁utajya	-8519
▁wagize	-8520
▁wakuye	-8521
▁wavuga	-8522
▁whisky	-8523
▁wicaye	-8524
▁yabaga	-8525
▁yagira	-8526
▁yasize	-8527
▁yujuje	-8528
▁zirasa	-8529
Honestly	-8530
Karasira	-8531
Whatever	-8532
bilities	-8533
children	-8534
fashijwe	-8535
gushinja	-8536
haranira	-8537
idential	-8538
ishyurwa	-8539
kespeare	-8540
komokaga	-8541
kurikiye	-8542
rusalemu	-8543
shimisha	-8544
shishika	-8545
shyiraho	-8546
tabiriye	-8547
titution	-8548
tunities	-8549
yamamare	-8550
▁Afurika	-8551
▁Apostle	-8552
▁Beowulf	-8553
▁Explain	-8554
▁General	-8555
▁Gihanga	-8556
▁Gisenyi	-8557
▁Ibiciro	-8558
▁Igiciro	-8559
▁Johnson	-8560
▁Katsumi	-8561
▁Nafashe	-8562
▁Ntiyaga	-8563
▁Ntukine	-8564
▁Ntureke	-8565
▁Titanic	-8566
▁Ububiko	-8567
▁Ubwenge	-8568
▁Ukeneye	-8569
▁Umugore	-8570
▁Urabona	-8571
▁Uwiteka	-8572
▁Uzakora	-8573
▁Wabonye	-8574
▁abibona	-8575
▁absence	-8576
▁actions	-8577
▁agamije	-8578
▁akomeje	-8579
▁akomeye	-8580
▁alcohol	-8581
▁amateka	-8582
▁amatike	-8583
▁ambulan	-8584
▁ambwira	-8585
▁america	-8586
▁appreci	-8587
▁atakoze	-8588
▁atigeze	-8589
▁avugana	-8590
▁azagira	-8591
▁azagura	-8592
▁azazira	-8593
▁barenga	-8594
▁biggest	-8595
▁bingahe	-8596
▁binyuze	-8597
▁bishaje	-8598
▁bulldog	-8599
▁burundu	-8600
▁calling	-8601
▁changes	-8602
▁clearly	-8603
▁compare	-8604
▁consequ	-8605
▁cyakazi	-8606
▁cyifuzo	-8607
▁delayed	-8608
▁details	-8609
▁dressed	-8610
▁dukunda	-8611
▁earlier	-8612
▁elderly	-8613
▁express	-8614
▁falling	-8615
▁finally	-8616
▁fishing	-8617
▁forever	-8618
▁gisenyi	-8619
▁growing	-8620
▁guevara	-8621
▁gutinya	-8622
▁hakonje	-8623
▁heavily	-8624
▁ibibera	-8625
▁ibihuha	-8626
▁ibizaba	-8627
▁igiciro	-8628
▁igihano	-8629
▁igikapu	-8630
▁iherezo	-8631
▁ikuzimu	-8632
▁imbunda	-8633
▁imidoka	-8634
▁imitima	-8635
▁imyanya	-8636
▁inganda	-8637
▁ingendo	-8638
▁ingenzi	-8639
▁irindwi	-8640
▁isahani	-8641
▁isanzwe	-8642
▁itsinda	-8643
▁kanseri	-8644
▁kirenze	-8645
▁kumvira	-8646
▁kurwara	-8647
▁kuzimya	-8648
▁kuzungu	-8649
▁kwanjye	-8650
▁kwemeza	-8651
▁located	-8652
▁mathema	-8653
▁miracle	-8654
▁mubantu	-8655
▁mukwezi	-8656
▁munyana	-8657
▁murenzi	-8658
▁murinzi	-8659
▁nanyoye	-8660
▁ndakaye	-8661
▁nowhere	-8662
▁nshinga	-8663
▁ntibari	-8664
▁ntibasa	-8665
▁ntibaza	-8666
▁nuclear	-8667
▁nukuntu	-8668
▁numbers	-8669
▁nzakora	-8670
▁ordered	-8671
▁prevent	-8672
▁putting	-8673
▁reconci	-8674
▁returns	-8675
▁rukundo	-8676
▁schools	-8677
▁seventh	-8678
▁sharing	-8679
▁shebuja	-8680
▁sibyiza	-8681
▁similar	-8682
▁sinkeka	-8683
▁sinumva	-8684
▁staying	-8685
▁strange	-8686
▁suicide	-8687
▁tempora	-8688
▁tempura	-8689
▁thirsty	-8690
▁ubibona	-8691
▁uburezi	-8692
▁uhagaze	-8693
▁ukomeje	-8694
▁umbwire	-8695
▁umfasha	-8696
▁unusual	-8697
▁urukiko	-8698
▁useless	-8699
▁utagiye	-8700
▁uzakora	-8701
▁various	-8702
▁victory	-8703
▁welcome	-8704
▁wikendi	-8705
▁windows	-8706
▁wongeye	-8707
▁yafashe	-8708
▁yandika	-8709
▁yarebye	-8710
▁yashize	-8711
▁yatinze	-8712
▁yishuri	-8713
▁zingahe	-8714
Sometimes	-8715
bishakaga	-8716
byibushye	-8717
cientists	-8718
ishingizi	-8719
komeretse	-8720
menyereye	-8721
rengagiza	-8722
sanganira	-8723
shimishwa	-8724
shyirwaho	-8725
tishoboye	-8726
umuryango	-8727
urprising	-8728
zabitsina	-8729
zemererwa	-8730
ziranenge	-8731
▁Abahanga	-8732
▁Abakobwa	-8733
▁Bugesera	-8734
▁Einstein	-8735
▁Gicurasi	-8736
▁Gikristo	-8737
▁Hokkaido	-8738
▁Ibikorwa	-8739
▁Murumuna	-8740
▁Ntamuntu	-8741
▁Nyakanga	-8742
▁Probably	-8743
▁Republic	-8744
▁Sobanura	-8745
▁Tuzakora	-8746
▁Yambwiye	-8747
▁ababantu	-8748
▁agahinda	-8749
▁agencies	-8750
▁amahanga	-8751
▁appeared	-8752
▁asinzira	-8753
▁attended	-8754
▁bakeneye	-8755
▁barindwi	-8756
▁bikeneye	-8757
▁bishimye	-8758
▁biteguye	-8759
▁busanzwe	-8760
▁bwishuri	-8761
▁byatumye	-8762
▁byijambo	-8763
▁consider	-8764
▁contribu	-8765
▁cyonyine	-8766
▁defeated	-8767
▁deserved	-8768
▁determin	-8769
▁disagree	-8770
▁dukomeze	-8771
▁entering	-8772
▁fagitire	-8773
▁gathered	-8774
▁gisigaye	-8775
▁gufungwa	-8776
▁gukorana	-8777
▁gusohoka	-8778
▁habayeho	-8779
▁hagarika	-8780
▁ibisabwa	-8781
▁ibyemezo	-8782
▁ibyifuzo	-8783
▁igihumbi	-8784
▁igikorwa	-8785
▁ikirenge	-8786
▁imigenzo	-8787
▁includes	-8788
▁ingorane	-8789
▁ingurube	-8790
▁jyenyine	-8791
▁kamaliza	-8792
▁kiganiro	-8793
▁kizagera	-8794
▁kubibazo	-8795
▁kuhaguma	-8796
▁kumwanya	-8797
▁kuzamura	-8798
▁kwirinda	-8799
▁kwitonda	-8800
▁laughing	-8801
▁marriage	-8802
▁ministry	-8803
▁mistaken	-8804
▁molehill	-8805
▁mubibazo	-8806
▁nahisemo	-8807
▁ninshuti	-8808
▁nkubwiye	-8809
▁ntakindi	-8810
▁nyamaswa	-8811
▁practice	-8812
▁property	-8813
▁rejected	-8814
▁replaced	-8815
▁ruhushya	-8816
▁searched	-8817
▁services	-8818
▁shopping	-8819
▁sinshaka	-8820
▁speaking	-8821
▁speeding	-8822
▁summoned	-8823
▁training	-8824
▁uburambe	-8825
▁uburwayi	-8826
▁udakunda	-8827
▁uruganda	-8828
▁utabwiye	-8829
▁uzasanga	-8830
▁valuable	-8831
▁wanditse	-8832
▁watching	-8833
▁wishimye	-8834
▁witeguye	-8835
▁yabyutse	-8836
▁yagiriye	-8837
▁yahoraga	-8838
▁yambwira	-8839
▁yarakoze	-8840
▁yerekeje	-8841
▁yumusozi	-8842
▁zirindwi	-8843
▁zisigaye	-8844
Sinshobora	-8845
ariyamoshi	-8846
hagarariye	-8847
sobanurira	-8848
tumenyesha	-8849
▁Abayahudi	-8850
▁Bizagenda	-8851
▁Dushobora	-8852
▁Esperanto	-8853
▁Francisco	-8854
▁Mugwaneza	-8855
▁Nzagaruka	-8856
▁Rudahigwa	-8857
▁Ubusanzwe	-8858
▁abakiriya	-8859
▁advertise	-8860
▁akababaro	-8861
▁arabikora	-8862
▁attending	-8863
▁badakunda	-8864
▁bakwiriye	-8865
▁batandatu	-8866
▁batangira	-8867
▁believers	-8868
▁bitarenze	-8869
▁butegetsi	-8870
▁bwibitabo	-8871
▁carefully	-8872
▁connected	-8873
▁corkscrew	-8874
▁cyerekana	-8875
▁cyubucucu	-8876
▁described	-8877
▁determine	-8878
▁entertain	-8879
▁gukodesha	-8880
▁gusiganwa	-8881
▁icyarimwe	-8882
▁idasanzwe	-8883
▁ikiganiro	-8884
▁ikinyobwa	-8885
▁impinduka	-8886
▁imyumvire	-8887
▁inyenyeri	-8888
▁kubabwira	-8889
▁kukurusha	-8890
▁kukwereka	-8891
▁kumurongo	-8892
▁kunanirwa	-8893
▁kunyerera	-8894
▁kurongora	-8895
▁kurugamba	-8896
▁mentioned	-8897
▁mountains	-8898
▁mubikorwa	-8899
▁mumuhanda	-8900
▁narangije	-8901
▁neighbors	-8902
▁ngendanwa	-8903
▁ngerageza	-8904
▁ntampamvu	-8905
▁ntishyuye	-8906
▁nukumenya	-8907
▁nyirakuru	-8908
▁preaching	-8909
▁published	-8910
▁recommend	-8911
▁remaining	-8912
▁respected	-8913
▁satisfied	-8914
▁situation	-8915
▁suspended	-8916
▁thousands	-8917
▁turamutse	-8918
▁twabikora	-8919
▁uburakari	-8920
▁uburemere	-8921
▁ubusitani	-8922
▁ubuyobozi	-8923
▁udakeneye	-8924
▁umuforomo	-8925
▁umuvuduko	-8926
▁urwitwazo	-8927
▁wagombaga	-8928
▁witnesses	-8929
▁witondere	-8930
▁yababajwe	-8931
▁yakundaga	-8932
▁yarapfuye	-8933
▁yashoboye	-8934
▁yatangiye	-8935
▁zishobora	-8936
banyarwanda	-8937
shimishijwe	-8938
▁Christians	-8939
▁Commission	-8940
▁Naganiriye	-8941
▁Sinifuzaga	-8942
▁Yerusalemu	-8943
▁accustomed	-8944
▁agasanduku	-8945
▁apologized	-8946
▁aringombwa	-8947
▁banyeshuri	-8948
▁bigurishwa	-8949
▁bitabiriye	-8950
▁bitekerezo	-8951
▁corruption	-8952
▁disability	-8953
▁disappoint	-8954
▁discourage	-8955
▁everywhere	-8956
▁girlfriend	-8957
▁gisirikare	-8958
▁gisobanura	-8959
▁gusubiramo	-8960
▁ibikinisho	-8961
▁igikundiro	-8962
▁industries	-8963
▁iraryoshye	-8964
▁kubiryozwa	-8965
▁kubishyira	-8966
▁kucyumweru	-8967
▁kumushinja	-8968
▁kwiyongera	-8969
▁masezerano	-8970
▁mucyumweru	-8971
▁ndamukunda	-8972
▁ntazongera	-8973
▁ntibikwiye	-8974
▁ntishobora	-8975
▁permission	-8976
▁principles	-8977
▁production	-8978
▁reasonable	-8979
▁remembered	-8980
▁risobanura	-8981
▁twashoboye	-8982
▁umucamanza	-8983
▁umugwaneza	-8984
▁umukoresha	-8985
▁umwanditsi	-8986
▁umwihariko	-8987
▁unemployed	-8988
▁urashobora	-8989
▁urufunguzo	-8990
▁yitegereza	-8991
Kubwamahirwe	-8992
▁Biratangaje	-8993
▁Icyongereza	-8994
▁Mumbabarire	-8995
▁Ntutekereza	-8996
▁Shakespeare	-8997
▁accompanied	-8998
▁ahagaragara	-8999
▁amarushanwa	-9000
▁arahaguruka	-9001
▁azabigeraho	-9002
▁barashobora	-9003
▁bizahindura	-9004
▁byakubayeho	-9005
▁guhangayika	-9006
▁gutandukana	-9007
▁ibidukikije	-9008
▁kwishimisha	-9009
▁mathematics	-9010
▁ndatekereza	-9011
▁nkumuvugizi	-9012
▁ntibisanzwe	-9013
▁regulations	-9014
▁tuzashobora	-9015
▁ubitekereza	-9016
▁ubushishozi	-9017
▁ugereranije	-9018
▁Ntibishoboka	-9019
▁Ntiyagarutse	-9020
▁Tturashobora	-9021
▁atazashobora	-9022
▁batandukanye	-9023
▁butandukanye	-9024
▁gukurikirana	-9025
▁instructions	-9026
▁kirashyushye	-9027
▁mbonerahamwe	-9028
▁nigitekerezo	-9029
▁ntuzibagirwe	-9030
▁requirements	-9031
▁umunyabwenge	-9032
▁yatekerezaga	-9033
▁Ndashidikanya	-9034
▁Sinashoboraga	-9035
▁amashanyarazi	-9036
▁ikinyabupfura	-9037
▁misunderstand	-9038
▁nkigitekerezo	-9039
▁opportunities	-9040
▁sinashoboraga	-9041
▁understanding	-9042
▁administration	-9043
▁birashimishije	-9044
▁ibiyobyabwenge	-9045
▁ntiyashoboraga	-9046
▁sinatekerezaga	-9047
▁umunyamategeko	-9048
▁yabitekerezaga	-9049
▁biranshimishije	-9050
..	-9051
;"	-9052
AB	-9053
Bi	-9054
Ch	-9055
Ha	-9056
IL	-9057
Ne	-9058
Nk	-9059
US	-9060
af	-9061
ds	-9062
eb	-9063
ee	-9064
ns	-9065
nu	-9066
ob	-9067
oo	-9068
sy	-9069
ug	-9070
ws	-9071
▁4	-9072
"""	-9073
Aha	-9074
Bar	-9075
Dep	-9076
Gas	-9077
How	-9078
Let	-9079
Nku	-9080
She	-9081
Uko	-9082
Uzi	-9083
ack	-9084
aho	-9085
ami	-9086
bes	-9087
bin	-9088
box	-9089
bri	-9090
bur	-9091
but	-9092
cas	-9093
cha	-9094
cil	-9095
dea	-9096
ecu	-9097
ewe	-9098
ffi	-9099
ffs	-9100
gga	-9101
gun	-9102
hya	-9103
ids	-9104
ife	-9105
ima	-9106
ive	-9107
jwa	-9108
law	-9109
llu	-9110
ock	-9111
oli	-9112
ops	-9113
orm	-9114
ped	-9115
pha	-9116
pim	-9117
ril	-9118
roe	-9119
rra	-9120
rti	-9121
tem	-9122
tte	-9123
ual	-9124
uce	-9125
uts	-9126
uye	-9127
uyu	-9128
win	-9129
yis	-9130
zon	-9131
▁10	-9132
▁12	-9133
▁Bw	-9134
▁Co	-9135
▁Ko	-9136
▁Mo	-9137
▁RW	-9138
▁Un	-9139
▁Ur	-9140
▁uz	-9141
Here	-9142
Icyo	-9143
Jane	-9144
Just	-9145
Kuki	-9146
Last	-9147
Reka	-9148
Sini	-9149
anna	-9150
baka	-9151
bati	-9152
bavu	-9153
baze	-9154
bese	-9155
bihe	-9156
biso	-9157
body	-9158
buje	-9159
buye	-9160
cara	-9161
case	-9162
ceit	-9163
cend	-9164
cest	-9165
chan	-9166
cket	-9167
crip	-9168
daga	-9169
deba	-9170
deni	-9171
dian	-9172
duha	-9173
dura	-9174
ebru	-9175
ened	-9176
enye	-9177
full	-9178
geso	-9179
gher	-9180
goma	-9181
gome	-9182
gori	-9183
gues	-9184
gufa	-9185
guin	-9186
gust	-9187
haba	-9188
hami	-9189
hane	-9190
haza	-9191
hemu	-9192
heye	-9193
higo	-9194
hije	-9195
hiro	-9196
hume	-9197
humu	-9198
hute	-9199
ibyo	-9200
icya	-9201
ikin	-9202
imot	-9203
ints	-9204
inzu	-9205
ises	-9206
ison	-9207
itsi	-9208
jiza	-9209
kand	-9210
kobo	-9211
koko	-9212
koni	-9213
kuwe	-9214
lari	-9215
lera	-9216
lete	-9217
llas	-9218
lley	-9219
lose	-9220
lted	-9221
mazi	-9222
mbyi	-9223
mers	-9224
mezi	-9225
mind	-9226
mpet	-9227
musa	-9228
nama	-9229
nani	-9230
nzwe	-9231
onal	-9232
ords	-9233
ores	-9234
orro	-9235
orth	-9236
otha	-9237
paka	-9238
phan	-9239
posi	-9240
pria	-9241
rega	-9242
rier	-9243
rify	-9244
rize	-9245
rone	-9246
rume	-9247
ruta	-9248
sana	-9249
sani	-9250
secu	-9251
sizi	-9252
suye	-9253
tals	-9254
tega	-9255
tels	-9256
toza	-9257
tuje	-9258
turb	-9259
turi	-9260
tury	-9261
utan	-9262
voka	-9263
wera	-9264
when	-9265
wika	-9266
wuhe	-9267
yano	-9268
yere	-9269
yisi	-9270
zani	-9271
ziga	-9272
zozi	-9273
zure	-9274
▁Azi	-9275
▁Bat	-9276
▁Bin	-9277
▁Bir	-9278
▁Bis	-9279
▁Cle	-9280
▁Due	-9281
▁Eli	-9282
▁Ext	-9283
▁Han	-9284
▁Ind	-9285
▁Ira	-9286
▁Isi	-9287
▁Kur	-9288
▁Lit	-9289
▁Mar	-9290
▁Mrs	-9291
▁Ndu	-9292
▁Ngi	-9293
▁Oli	-9294
▁Pra	-9295
▁Pre	-9296
▁Rus	-9297
▁Tes	-9298
▁Tho	-9299
▁Uko	-9300
▁Wan	-9301
▁agi	-9302
▁agu	-9303
▁aje	-9304
▁ato	-9305
▁coo	-9306
▁dar	-9307
▁dev	-9308
▁emp	-9309
▁fan	-9310
▁fis	-9311
▁ice	-9312
▁ifa	-9313
▁inf	-9314
▁inj	-9315
▁iti	-9316
▁iwe	-9317
▁mpe	-9318
▁nib	-9319
▁nic	-9320
▁nim	-9321
▁nkw	-9322
▁nye	-9323
▁ple	-9324
▁rea	-9325
▁roo	-9326
▁smi	-9327
▁sof	-9328
▁sys	-9329
▁tan	-9330
▁toy	-9331
▁tun	-9332
▁tut	-9333
▁una	-9334
▁usa	-9335
▁uyi	-9336
▁wea	-9337
▁yes	-9338
Amaze	-9339
Nkiri	-9340
Ntuga	-9341
Nzamu	-9342
Rimwe	-9343
Where	-9344
aniza	-9345
anota	-9346
anywa	-9347
bahwa	-9348
binya	-9349
butsa	-9350
byaye	-9351
byino	-9352
byita	-9353
cards	-9354
cibwa	-9355
ciple	-9356
cisha	-9357
craft	-9358
cyayi	-9359
cyeka	-9360
cyiru	-9361
dates	-9362
dults	-9363
enjye	-9364
entle	-9365
fairs	-9366
ghout	-9367
gongo	-9368
goror	-9369
goryi	-9370
gosha	-9371
grand	-9372
graph	-9373
gurwa	-9374
hebye	-9375
herry	-9376
holar	-9377
house	-9378
ikigo	-9379
inama	-9380
inosa	-9381
inted	-9382
isaha	-9383
kanwa	-9384
kingi	-9385
kingo	-9386
kiran	-9387
kwiga	-9388
kwing	-9389
mbiye	-9390
mbure	-9391
mejwe	-9392
mende	-9393
mirwa	-9394
mocra	-9395
mpano	-9396
mpire	-9397
mvaga	-9398
nabas	-9399
nziko	-9400
odern	-9401
oking	-9402
olari	-9403
ombwa	-9404
onica	-9405
osing	-9406
pital	-9407
ridge	-9408
rious	-9409
robyi	-9410
rombe	-9411
rophi	-9412
rwego	-9413
ryoha	-9414
sesen	-9415
setsa	-9416
shira	-9417
shobo	-9418
sions	-9419
somye	-9420
store	-9421
tally	-9422
tance	-9423
thren	-9424
tical	-9425
tigue	-9426
ttery	-9427
tuals	-9428
tumva	-9429
ubije	-9430
ubira	-9431
ughed	-9432
ukuri	-9433
uraga	-9434
uruza	-9435
uruzi	-9436
using	-9437
vants	-9438
vides	-9439
wanwa	-9440
wanze	-9441
while	-9442
zanye	-9443
zanyi	-9444
zerwa	-9445
zimye	-9446
zungu	-9447
▁Adam	-9448
▁Baza	-9449
▁Caes	-9450
▁Chan	-9451
▁Didn	-9452
▁Dire	-9453
▁Dist	-9454
▁From	-9455
▁Hafi	-9456
▁Hoba	-9457
▁Icyi	-9458
▁Impu	-9459
▁Inzu	-9460
▁Jews	-9461
▁June	-9462
▁Keep	-9463
▁Kuko	-9464
▁Love	-9465
▁Mala	-9466
▁Miss	-9467
▁Muse	-9468
▁Naba	-9469
▁Naje	-9470
▁Nawe	-9471
▁Niko	-9472
▁Nimu	-9473
▁Pole	-9474
▁Poli	-9475
▁Read	-9476
▁Span	-9477
▁Such	-9478
▁Take	-9479
▁Ture	-9480
▁Undi	-9481
▁Were	-9482
▁Wowe	-9483
▁Yara	-9484
▁Yize	-9485
▁acid	-9486
▁amba	-9487
▁anti	-9488
▁anxi	-9489
▁appo	-9490
▁aren	-9491
▁atyo	-9492
▁baje	-9493
▁bane	-9494
▁basa	-9495
▁baso	-9496
▁bayi	-9497
▁bayo	-9498
▁bicu	-9499
▁bill	-9500
▁biva	-9501
▁blow	-9502
▁bubi	-9503
▁buka	-9504
▁buke	-9505
▁butu	-9506
▁calf	-9507
▁cast	-9508
▁cele	-9509
▁coin	-9510
▁comb	-9511
▁deaf	-9512
▁dear	-9513
▁deep	-9514
▁desk	-9515
▁desp	-9516
▁dili	-9517
▁doct	-9518
▁dogs	-9519
▁drea	-9520
▁drug	-9521
▁duhe	-9522
▁emba	-9523
▁esta	-9524
▁exha	-9525
▁fans	-9526
▁farm	-9527
▁form	-9528
▁gabi	-9529
▁gare	-9530
▁guca	-9531
▁guto	-9532
▁harm	-9533
▁haru	-9534
▁ibin	-9535
▁ibye	-9536
▁igwa	-9537
▁inta	-9538
▁inzi	-9539
▁iyin	-9540
▁jump	-9541
▁kara	-9542
▁kaza	-9543
▁kida	-9544
▁kora	-9545
▁kubo	-9546
▁kubw	-9547
▁kwan	-9548
▁laws	-9549
▁legs	-9550
▁liar	-9551
▁lion	-9552
▁mail	-9553
▁mand	-9554
▁manu	-9555
▁matt	-9556
▁moko	-9557
▁muco	-9558
▁naya	-9559
▁nayi	-9560
▁nimi	-9561
▁nkib	-9562
▁nkwe	-9563
▁nose	-9564
▁nsin	-9565
▁obje	-9566
▁offe	-9567
▁ours	-9568
▁pigs	-9569
▁pile	-9570
▁push	-9571
▁puts	-9572
▁reve	-9573
▁ridi	-9574
▁rise	-9575
▁riva	-9576
▁ruin	-9577
▁rura	-9578
▁salo	-9579
▁sang	-9580
▁self	-9581
▁site	-9582
▁sits	-9583
▁slip	-9584
▁soup	-9585
▁sunk	-9586
▁supu	-9587
▁taxi	-9588
▁tend	-9589
▁term	-9590
▁theo	-9591
▁toys	-9592
▁trea	-9593
▁tube	-9594
▁tumu	-9595
▁tuve	-9596
▁twen	-9597
▁ujye	-9598
▁unto	-9599
▁vain	-9600
▁visa	-9601
▁volc	-9602
▁vuga	-9603
▁waje	-9604
▁ware	-9605
▁wayo	-9606
▁wiga	-9607
▁wigi	-9608
▁wild	-9609
▁wore	-9610
▁woro	-9611
▁wubu	-9612
▁yaha	-9613
▁yaru	-9614
▁yate	-9615
▁yaya	-9616
▁yego	-9617
▁yimi	-9618
▁yize	-9619
Before	-9620
Christ	-9621
Kugeza	-9622
Ntacyo	-9623
Sinari	-9624
Ugomba	-9625
Unless	-9626
Yavuze	-9627
bagiye	-9628
banuye	-9629
beshyi	-9630
bivuga	-9631
burira	-9632
buriye	-9633
ceceke	-9634
culous	-9635
elites	-9636
fatika	-9637
ficant	-9638
firiye	-9639
friend	-9640
ganire	-9641
garura	-9642
genewe	-9643
gezaho	-9644
gezeyo	-9645
giramo	-9646
gisoma	-9647
gorofa	-9648
ground	-9649
gumana	-9650
guruye	-9651
gusoma	-9652
hagera	-9653
haguru	-9654
hanuzi	-9655
hatuye	-9656
herewe	-9657
hether	-9658
horaho	-9659
huguwe	-9660
hurira	-9661
hutira	-9662
imbano	-9663
imothy	-9664
indege	-9665
intebe	-9666
ishura	-9667
ishywa	-9668
jagari	-9669
jyepfo	-9670
karita	-9671
kerere	-9672
kinnye	-9673
kirira	-9674
kubera	-9675
kubiye	-9676
lected	-9677
llenge	-9678
losion	-9679
magare	-9680
makuru	-9681
manuka	-9682
masaha	-9683
meters	-9684
modate	-9685
moteyo	-9686
onveni	-9687
otions	-9688
priate	-9689
raliya	-9690
ramuka	-9691
ranywe	-9692
rather	-9693
rikana	-9694
rillas	-9695
rolled	-9696
ronger	-9697
rukana	-9698
saruro	-9699
shiman	-9700
shinje	-9701
shyize	-9702
suzugu	-9703
tabazi	-9704
tended	-9705
terana	-9706
terial	-9707
teries	-9708
ticize	-9709
ticles	-9710
tsinzi	-9711
tunate	-9712
ukwezi	-9713
umunsi	-9714
umwaka	-9715
umwana	-9716
viewed	-9717
wadays	-9718
yahura	-9719
yangwa	-9720
yejana	-9721
yoboka	-9722
yuguti	-9723
yuramo	-9724
zeraga	-9725
zerana	-9726
zerera	-9727
zoroha	-9728
▁Abazi	-9729
▁Among	-9730
▁Arasa	-9731
▁Azaba	-9732
▁Aziko	-9733
▁Banki	-9734
▁Being	-9735
▁China	-9736
▁Congo	-9737
▁David	-9738
▁Febru	-9739
▁Hotel	-9740
▁Ikipe	-9741
▁India	-9742
▁Iteka	-9743
▁Iyaba	-9744
▁Jacob	-9745
▁Jules	-9746
▁Kimwe	-9747
▁Mbega	-9748
▁Nkuko	-9749
▁Ntidu	-9750
▁Ntuye	-9751
▁Nyaba	-9752
▁Nyira	-9753
▁Osita	-9754
▁Satan	-9755
▁Scrip	-9756
▁Since	-9757
▁Stand	-9758
▁Syria	-9759
▁Times	-9760
▁Urimo	-9761
▁Uwera	-9762
▁Uzaba	-9763
▁Wanga	-9764
▁abamu	-9765
▁abari	-9766
▁abaye	-9767
▁abone	-9768
▁agera	-9769
▁agura	-9770
▁akana	-9771
▁akoze	-9772
▁alike	-9773
▁angel	-9774
▁aside	-9775
▁asoma	-9776
▁babwi	-9777
▁bamwi	-9778
▁banga	-9779
▁bapti	-9780
▁beard	-9781
▁bones	-9782
▁boris	-9783
▁borro	-9784
▁bribe	-9785
▁bride	-9786
▁bumva	-9787
▁bwaho	-9788
▁bwuru	-9789
▁byubu	-9790
▁byuru	-9791
▁chest	-9792
▁chris	-9793
▁condu	-9794
▁confu	-9795
▁crowd	-9796
▁crown	-9797
▁cyatu	-9798
▁cyayi	-9799
▁cyiyi	-9800
▁decei	-9801
▁demon	-9802
▁dispu	-9803
▁divor	-9804
▁dutan	-9805
▁email	-9806
▁ended	-9807
▁evils	-9808
▁extra	-9809
▁fence	-9810
▁flood	-9811
▁focus	-9812
▁forbi	-9813
▁fungu	-9814
▁ganza	-9815
▁guide	-9816
▁handi	-9817
▁hated	-9818
▁hates	-9819
▁hears	-9820
▁holds	-9821
▁homes	-9822
▁honey	-9823
▁honor	-9824
▁ibira	-9825
▁ibiru	-9826
▁ihita	-9827
▁ikigo	-9828
▁ikipe	-9829
▁inaha	-9830
▁ineza	-9831
▁isomo	-9832
▁isuku	-9833
▁itaha	-9834
▁itaza	-9835
▁itera	-9836
▁ituma	-9837
▁kanwa	-9838
▁karan	-9839
▁kinds	-9840
▁knife	-9841
▁kubwa	-9842
▁kubwo	-9843
▁legal	-9844
▁limit	-9845
▁lying	-9846
▁match	-9847
▁maybe	-9848
▁mayor	-9849
▁mbiri	-9850
▁media	-9851
▁migra	-9852
▁monit	-9853
▁mouse	-9854
▁moved	-9855
▁mpuze	-9856
▁mucyo	-9857
▁mvuze	-9858
▁mwuga	-9859
▁naked	-9860
▁namwe	-9861
▁nanga	-9862
▁narin	-9863
▁ndebe	-9864
▁ndeka	-9865
▁ndigu	-9866
▁ngabo	-9867
▁ngeze	-9868
▁ngoma	-9869
▁ngufi	-9870
▁nkaya	-9871
▁nkuri	-9872
▁ntaba	-9873
▁ntanu	-9874
▁ntayo	-9875
▁ntera	-9876
▁ntoki	-9877
▁nyoni	-9878
▁nzoga	-9879
▁obsta	-9880
▁pants	-9881
▁parks	-9882
▁piano	-9883
▁plant	-9884
▁pollu	-9885
▁promo	-9886
▁prove	-9887
▁radio	-9888
▁rainy	-9889
▁regre	-9890
▁relax	-9891
▁resur	-9892
▁risen	-9893
▁roger	-9894
▁rumwe	-9895
▁rupfu	-9896
▁rwacu	-9897
▁ryabo	-9898
▁ryibi	-9899
▁seats	-9900
▁serve	-9901
▁sheep	-9902
▁sides	-9903
▁signi	-9904
▁sinza	-9905
▁skill	-9906
▁slave	-9907
▁snake	-9908
▁souls	-9909
▁spiri	-9910
▁sport	-9911
▁storm	-9912
▁strug	-9913
▁style	-9914
▁tanga	-9915
▁tests	-9916
▁title	-9917
▁trial	-9918
▁twins	-9919
▁ubizi	-9920
▁ufata	-9921
▁uguze	-9922
▁ukeka	-9923
▁umusi	-9924
▁ushyi	-9925
▁uvuye	-9926
▁uvuze	-9927
▁uyumu	-9928
▁wanga	-9929
▁wenda	-9930
▁wheel	-9931
▁wibyo	-9932
▁winds	-9933
▁wives	-9934
▁woods	-9935
▁wrath	-9936
▁wundi	-9937
▁yanga	-9938
▁yicyu	-9939
▁zamas	-9940
▁zunze	-9941
Icyampa	-9942
abagore	-9943
akarere	-9944
andable	-9945
angayik	-9946
bonanye	-9947
bonetse	-9948
bujijwe	-9949
buranga	-9950
bwiraga	-9951
byabaye	-9952
byinnyi	-9953
cations	-9954
cecetse	-9955
ception	-9956
ctivity	-9957
cunguzi	-9958
dendezo	-9959
farashi	-9960
fatirwa	-9961
frastru	-9962
ganijwe	-9963
garanye	-9964
garutse	-9965
gendeye	-9966
ghteous	-9967
giritse	-9968
hanitse	-9969
hatirwa	-9970
herezwa	-9971
ishimwe	-9972
isuzuma	-9973
jugunye	-9974
kinguye	-9975
kongera	-9976
koranye	-9977
kubahwa	-9978
kwiruka	-9979
kwizera	-9980
llation	-9981
mbayeho	-9982
menetse	-9983
menyaga	-9984
mubonye	-9985
mubwira	-9986
mushaka	-9987
ndaries	-9988
plement	-9989
ression	-9990
rindira	-9991
ririmba	-9992
rukanwa	-9993
rurumba	-9994
shinjwa	-9995
sunitse	-9996
tinyaga	-9997
tondeye	-9998
twereka	-9999
umugore	-10000
visions	-10001
vugwaho	-10002
▁Accept	-10003
▁Bizaba	-10004
▁Burera	-10005
▁Butare	-10006
▁Corona	-10007
▁France	-10008
▁Imvura	-10009
▁Intego	-10010
▁Inzira	-10011
▁Kamena	-10012
▁Kugeza	-10013
▁Little	-10014
▁Mbwira	-10015
▁Mugihe	-10016
▁Nahise	-10017
▁Nakoze	-10018
▁Nariye	-10019
▁Navuze	-10020
▁Ngwino	-10021
▁Ninjye	-10022
▁Njyewe	-10023
▁Noheri	-10024
▁Ongera	-10025
▁Petero	-10026
▁Satani	-10027
▁Tuvuga	-10028
▁Twembi	-10029
▁Umwuka	-10030
▁Uzumva	-10031
▁Waguze	-10032
▁Yagiye	-10033
▁Yemeye	-10034
▁access	-10035
▁across	-10036
▁action	-10037
▁adults	-10038
▁afashe	-10039
▁affect	-10040
▁amajwi	-10041
▁ancest	-10042
▁angels	-10043
▁appeal	-10044
▁arimwe	-10045
▁asanga	-10046
▁atanga	-10047
▁atumva	-10048
▁atwara	-10049
▁babuze	-10050
▁bageze	-10051
▁bagore	-10052
▁bahari	-10053
▁bahawe	-10054
▁bahora	-10055
▁bakoze	-10056
▁bakuru	-10057
▁bakuze	-10058
▁baptis	-10059
▁bareba	-10060
▁bariku	-10061
▁bataza	-10062
▁battle	-10063
▁batuye	-10064
▁bazize	-10065
▁behave	-10066
▁belief	-10067
▁bidaso	-10068
▁bifata	-10069
▁bigger	-10070
▁bihugu	-10071
▁bimaze	-10072
▁binini	-10073
▁biraba	-10074
▁biraku	-10075
▁bireba	-10076
▁biriya	-10077
▁bivuga	-10078
▁boring	-10079
▁bubiko	-10080
▁budget	-10081
▁bukeye	-10082
▁bullet	-10083
▁bunini	-10084
▁buried	-10085
▁butaka	-10086
▁byombi	-10087
▁chairs	-10088
▁chased	-10089
▁collap	-10090
▁comply	-10091
▁custom	-10092
▁cyanne	-10093
▁cyenda	-10094
▁cyibyo	-10095
▁damage	-10096
▁deceit	-10097
▁defeat	-10098
▁delete	-10099
▁depart	-10100
▁detail	-10101
▁dinosa	-10102
▁diyama	-10103
▁double	-10104
▁duhari	-10105
▁effect	-10106
▁eleven	-10107
▁enjoys	-10108
▁excuse	-10109
▁fluent	-10110
▁gaciro	-10111
▁garage	-10112
▁gicucu	-10113
▁gihari	-10114
▁gikapu	-10115
▁google	-10116
▁greedy	-10117
▁groups	-10118
▁gukira	-10119
▁gukiza	-10120
▁gukura	-10121
▁gushya	-10122
▁gutaba	-10123
▁gutora	-10124
▁hotels	-10125
▁humura	-10126
▁ibyaha	-10127
▁ibyuma	-10128
▁icyayi	-10129
▁ifasha	-10130
▁igenda	-10131
▁igihan	-10132
▁ijisho	-10133
▁ikamyo	-10134
▁impeta	-10135
▁income	-10136
▁indeed	-10137
▁inform	-10138
▁ingeso	-10139
▁ingoma	-10140
▁ingufu	-10141
▁inkota	-10142
▁inteko	-10143
▁irungu	-10144
▁ishema	-10145
▁itagwa	-10146
▁iterwa	-10147
▁iyanyu	-10148
▁kamaro	-10149
▁kamere	-10150
▁kanjye	-10151
▁karere	-10152
▁kigeze	-10153
▁kimaze	-10154
▁kitari	-10155
▁kitaza	-10156
▁komeza	-10157
▁kudoda	-10158
▁kuroba	-10159
▁kuzaba	-10160
▁kuzuza	-10161
▁lesson	-10162
▁losing	-10163
▁loving	-10164
▁mabisi	-10165
▁mahoro	-10166
▁making	-10167
▁manywa	-10168
▁mavuta	-10169
▁mazina	-10170
▁mbyino	-10171
▁mfasha	-10172
▁mfashe	-10173
▁miguel	-10174
▁minota	-10175
▁mirror	-10176
▁misozi	-10177
▁modern	-10178
▁moteri	-10179
▁mubare	-10180
▁mubihe	-10181
▁mubona	-10182
▁mufite	-10183
▁mugice	-10184
▁mugozi	-10185
▁muhoza	-10186
▁mumazi	-10187
▁munama	-10188
▁muribo	-10189
▁muriri	-10190
▁musaza	-10191
▁muziki	-10192
▁mwebwe	-10193
▁nagato	-10194
▁namara	-10195
▁naraye	-10196
▁ndabyo	-10197
▁ndwara	-10198
▁needle	-10199
▁nikihe	-10200
▁nkambi	-10201
▁nomero	-10202
▁ntitwa	-10203
▁ntiyan	-10204
▁ntumva	-10205
▁nyabwo	-10206
▁nzakwi	-10207
▁palace	-10208
▁parent	-10209
▁passed	-10210
▁passes	-10211
▁pawulo	-10212
▁piyano	-10213
▁poetry	-10214
▁points	-10215
▁polite	-10216
▁poorly	-10217
▁prophe	-10218
▁refuge	-10219
▁regard	-10220
▁region	-10221
▁rekera	-10222
▁religi	-10223
▁remind	-10224
▁repair	-10225
▁reques	-10226
▁result	-10227
▁review	-10228
▁rinini	-10229
▁rufite	-10230
▁rugagi	-10231
▁rukora	-10232
▁rusaku	-10233
▁salary	-10234
▁saving	-10235
▁search	-10236
▁sewing	-10237
▁shirts	-10238
▁singer	-10239
▁sinner	-10240
▁sudden	-10241
▁superi	-10242
▁system	-10243
▁throne	-10244
▁troops	-10245
▁tsinda	-10246
▁turimo	-10247
▁tutazi	-10248
▁tuvuye	-10249
▁tuziko	-10250
▁twembi	-10251
▁ubwira	-10252
▁ubwiye	-10253
▁ubwoya	-10254
▁ugenda	-10255
▁uhindu	-10256
▁ujyayo	-10257
▁umenye	-10258
▁umwuga	-10259
▁urebye	-10260
▁utumva	-10261
▁utwite	-10262
▁valley	-10263
▁videwo	-10264
▁wabuze	-10265
▁watoye	-10266
▁wibuka	-10267
▁wicked	-10268
▁widely	-10269
▁wimana	-10270
▁yaguye	-10271
▁yahaye	-10272
▁yataye	-10273
▁yemewe	-10274
▁yibuka	-10275
▁yiruka	-10276
▁zituma	-10277
Sinigeze	-10278
abakobwa	-10279
ashoboye	-10280
bayazana	-10281
garagaye	-10282
geragezo	-10283
hamagari	-10284
herereye	-10285
humuriza	-10286
ishyamba	-10287
itingito	-10288
kagombye	-10289
kinamico	-10290
kiragera	-10291
kizamini	-10292
kwandika	-10293
mategeko	-10294
mfashije	-10295
mokarasi	-10296
mpangayi	-10297
mweretse	-10298
orerwamo	-10299
rambirwa	-10300
rukanywe	-10301
subiramo	-10302
teranira	-10303
tsindira	-10304
tunately	-10305
urukundo	-10306
yarwanda	-10307
yubahiro	-10308
▁Abagize	-10309
▁African	-10310
▁Agaciro	-10311
▁Another	-10312
▁Byasaga	-10313
▁Gahunda	-10314
▁Hanyuma	-10315
▁However	-10316
▁Imyenda	-10317
▁Inkweto	-10318
▁Itorero	-10319
▁Musinga	-10320
▁Natanze	-10321
▁Ndareba	-10322
▁Ndemera	-10323
▁Ndicuza	-10324
▁Ndwanya	-10325
▁Ntituga	-10326
▁Ntukamu	-10327
▁Olivier	-10328
▁Spanish	-10329
▁Timothy	-10330
▁Twagize	-10331
▁Ukraine	-10332
▁Umukiza	-10333
▁Ururabo	-10334
▁Usanzwe	-10335
▁Uzabona	-10336
▁Uzagira	-10337
▁abarimu	-10338
▁abasore	-10339
▁abavuga	-10340
▁abikura	-10341
▁abizera	-10342
▁adahari	-10343
▁affairs	-10344
▁agezeyo	-10345
▁ahagaze	-10346
▁ahaguma	-10347
▁akomeza	-10348
▁amafoto	-10349
▁amagana	-10350
▁amagare	-10351
▁amahame	-10352
▁amanota	-10353
▁amasasu	-10354
▁amerewe	-10355
▁applies	-10356
▁arahuze	-10357
▁arakaye	-10358
▁asanzwe	-10359
▁assured	-10360
▁bakobwa	-10361
▁bananas	-10362
▁bapfuye	-10363
▁basabye	-10364
▁batanga	-10365
▁battery	-10366
▁benefit	-10367
▁bingana	-10368
▁bintera	-10369
▁bitwara	-10370
▁byatuma	-10371
▁byibura	-10372
▁byigeze	-10373
▁capable	-10374
▁capital	-10375
▁century	-10376
▁certain	-10377
▁comfort	-10378
▁comment	-10379
▁compete	-10380
▁content	-10381
▁control	-10382
▁cooking	-10383
▁created	-10384
▁cutting	-10385
▁cyabuze	-10386
▁cyamazi	-10387
▁cyuzuye	-10388
▁disturb	-10389
▁divided	-10390
▁donated	-10391
▁dreamed	-10392
▁duhindu	-10393
▁effects	-10394
▁embarra	-10395
▁english	-10396
▁fabrica	-10397
▁farmers	-10398
▁fatigue	-10399
▁formula	-10400
▁forward	-10401
▁goodbye	-10402
▁guhabwa	-10403
▁guhisha	-10404
▁gukwira	-10405
▁gusanga	-10406
▁gusetsa	-10407
▁gushize	-10408
▁gutorwa	-10409
▁happily	-10410
▁harvest	-10411
▁ibirayi	-10412
▁ibumoso	-10413
▁idakora	-10414
▁igisasu	-10415
▁ihumura	-10416
▁ikarita	-10417
▁ikiraro	-10418
▁ikorana	-10419
▁imisozi	-10420
▁imitate	-10421
▁impande	-10422
▁impuhwe	-10423
▁injyana	-10424
▁inkunga	-10425
▁insects	-10426
▁intelli	-10427
▁introdu	-10428
▁intwari	-10429
▁invited	-10430
▁ishinga	-10431
▁iteguye	-10432
▁izagera	-10433
▁izamara	-10434
▁journal	-10435
▁kacyiru	-10436
▁kagisha	-10437
▁kubandi	-10438
▁kubikwa	-10439
▁kumyaka	-10440
▁kundeba	-10441
▁kuribyo	-10442
▁kurinda	-10443
▁laughed	-10444
▁leading	-10445
▁mankind	-10446
▁matters	-10447
▁mihanda	-10448
▁mihango	-10449
▁mpapuro	-10450
▁mpitamo	-10451
▁mubyara	-10452
▁mumutwe	-10453
▁mumvura	-10454
▁myitozo	-10455
▁nakunze	-10456
▁narinzi	-10457
▁nasabye	-10458
▁natinze	-10459
▁natural	-10460
▁ndabizi	-10461
▁ndabona	-10462
▁ndahuze	-10463
▁ndushye	-10464
▁ngaruka	-10465
▁ninziza	-10466
▁nkagira	-10467
▁nkufite	-10468
▁noticed	-10469
▁nuburyo	-10470
▁nzafata	-10471
▁nzemera	-10472
▁officer	-10473
▁parties	-10474
▁partner	-10475
▁payment	-10476
▁penguin	-10477
▁pleased	-10478
▁private	-10479
▁process	-10480
▁raising	-10481
▁regular	-10482
▁replace	-10483
▁rituals	-10484
▁rugamba	-10485
▁ruganda	-10486
▁rwandan	-10487
▁ryabaye	-10488
▁ryinshi	-10489
▁scholar	-10490
▁science	-10491
▁section	-10492
▁sending	-10493
▁showing	-10494
▁sixteen	-10495
▁society	-10496
▁survive	-10497
▁trained	-10498
▁trumpet	-10499
▁tubanze	-10500
▁twavuga	-10501
▁twiteze	-10502
▁ubucuti	-10503
▁ubujura	-10504
▁uburere	-10505
▁ugukora	-10506
▁uhereye	-10507
▁ukareba	-10508
▁ukemura	-10509
▁ukuboko	-10510
▁ukuguru	-10511
▁umbwira	-10512
▁umbwiye	-10513
▁umfashe	-10514
▁umwotsi	-10515
▁unaniwe	-10516
▁urakaye	-10517
▁urutoki	-10518
▁ushonje	-10519
▁utazaza	-10520
▁utsinda	-10521
▁uvugana	-10522
▁uzicuza	-10523
▁version	-10524
▁victims	-10525
▁volunte	-10526
▁wambara	-10527
▁wanyuma	-10528
▁wavutse	-10529
▁whiskey	-10530
▁willing	-10531
▁workers	-10532
▁yanyoye	-10533
▁yarezwe	-10534
▁yasinze	-10535
▁yatanze	-10536
▁yatwaye	-10537
▁yigisha	-10538
▁yimvura	-10539
▁yimyaka	-10540
▁yitonze	-10541
▁yumujyi	-10542
▁yumweru	-10543
▁zigomba	-10544
▁zikunda	-10545
▁zirenga	-10546
Depending	-10547
Mubyukuri	-10548
Nzamugira	-10549
gabanutse	-10550
gabanyije	-10551
ganirwaho	-10552
gendekeye	-10553
gukoresha	-10554
irakamaro	-10555
ishyushye	-10556
isosiyete	-10557
komeretsa	-10558
kurikizwa	-10559
kuririmba	-10560
kwinginze	-10561
mbabarira	-10562
menyekana	-10563
mwemerera	-10564
rangirira	-10565
ringanire	-10566
rumvikana	-10567
sezeranya	-10568
tangiraga	-10569
titutions	-10570
yamabanga	-10571
zenguruka	-10572
▁Abaganga	-10573
▁Anything	-10574
▁Barinaba	-10575
▁Bushinwa	-10576
▁Byagenze	-10577
▁Databuja	-10578
▁Datawacu	-10579
▁District	-10580
▁February	-10581
▁Hazabaho	-10582
▁Ipantaro	-10583
▁Karemera	-10584
▁Komisiyo	-10585
▁Museveni	-10586
▁Nabyutse	-10587
▁Ndahamya	-10588
▁Ndarwaye	-10589
▁Nduhutse	-10590
▁Ntashaka	-10591
▁Ntutinye	-10592
▁Rujugira	-10593
▁Sogokuru	-10594
▁Timoteyo	-10595
▁Turizera	-10596
▁Twabonye	-10597
▁Umubyeyi	-10598
▁Uzagomba	-10599
▁Yabyutse	-10600
▁abahamya	-10601
▁abatware	-10602
▁abishaka	-10603
▁achieved	-10604
▁actually	-10605
▁akakanya	-10606
▁akwiriye	-10607
▁analysis	-10608
▁answered	-10609
▁anywhere	-10610
▁approach	-10611
▁approved	-10612
▁aragenda	-10613
▁ararwaye	-10614
▁argument	-10615
▁arriving	-10616
▁arumuntu	-10617
▁atangiye	-10618
▁babikora	-10619
▁bakorera	-10620
▁bathroom	-10621
▁becoming	-10622
▁believes	-10623
▁bibabaje	-10624
▁bikomeza	-10625
▁birebire	-10626
▁biremewe	-10627
▁bitubaho	-10628
▁bituruka	-10629
▁bizoroha	-10630
▁borrowed	-10631
▁branches	-10632
▁brethren	-10633
▁brothers	-10634
▁bushyuhe	-10635
▁bwumujyi	-10636
▁cultural	-10637
▁delaying	-10638
▁designed	-10639
▁distance	-10640
▁doctrine	-10641
▁election	-10642
▁examples	-10643
▁familiar	-10644
▁fluently	-10645
▁guhanura	-10646
▁gukinira	-10647
▁gukomeye	-10648
▁gukuramo	-10649
▁gusohoza	-10650
▁gutakaza	-10651
▁gutangwa	-10652
▁handsome	-10653
▁hasigaye	-10654
▁helpless	-10655
▁ibinyoma	-10656
▁identify	-10657
▁ifarashi	-10658
▁ifumbire	-10659
▁igihembo	-10660
▁igitsina	-10661
▁imfashan	-10662
▁imigambi	-10663
▁imprison	-10664
▁incident	-10665
▁included	-10666
▁ingofero	-10667
▁inkomoko	-10668
▁insulted	-10669
▁invented	-10670
▁iryoshye	-10671
▁isanduku	-10672
▁ishyamba	-10673
▁kirageze	-10674
▁kiragoye	-10675
▁kizamini	-10676
▁kubiciro	-10677
▁kuboneka	-10678
▁kubuzima	-10679
▁kugirira	-10680
▁kuguruka	-10681
▁kugusaba	-10682
▁kugutera	-10683
▁kukubaza	-10684
▁kukugora	-10685
▁kumarana	-10686
▁kumubiri	-10687
▁kumufata	-10688
▁kumunota	-10689
▁kumusaba	-10690
▁kumusura	-10691
▁kuruhuka	-10692
▁kuyobora	-10693
▁kwimurwa	-10694
▁location	-10695
▁mentally	-10696
▁mubitaro	-10697
▁mudugudu	-10698
▁mukirere	-10699
▁mumaboko	-10700
▁mumacupa	-10701
▁mumodoka	-10702
▁murwanda	-10703
▁nahitamo	-10704
▁ngufashe	-10705
▁nikigera	-10706
▁nkwereke	-10707
▁ntawundi	-10708
▁nteganya	-10709
▁ntibyaba	-10710
▁numugore	-10711
▁nzajyana	-10712
▁planning	-10713
▁powerful	-10714
▁programs	-10715
▁progress	-10716
▁protests	-10717
▁provides	-10718
▁recently	-10719
▁recorded	-10720
▁referred	-10721
▁reflects	-10722
▁required	-10723
▁resolved	-10724
▁rwandiko	-10725
▁servants	-10726
▁severely	-10727
▁sinkunda	-10728
▁sogokuru	-10729
▁specific	-10730
▁stronger	-10731
▁suitcase	-10732
▁terrible	-10733
▁tudafite	-10734
▁tudakora	-10735
▁tutakoze	-10736
▁tuzagira	-10737
▁ubikunda	-10738
▁ubumuntu	-10739
▁ubutunzi	-10740
▁ukoresha	-10741
▁umbrella	-10742
▁umufasha	-10743
▁umukunda	-10744
▁umukunzi	-10745
▁umutungo	-10746
▁umwijima	-10747
▁unkorera	-10748
▁urubanza	-10749
▁uyumwana	-10750
▁waguhaye	-10751
▁wamavuko	-10752
▁whenever	-10753
▁yabikora	-10754
▁yabivuze	-10755
▁yafashwe	-10756
▁yagiraga	-10757
▁yahagari	-10758
▁yahimbye	-10759
▁yakorewe	-10760
▁yarahiye	-10761
▁yashyize	-10762
▁yatsinze	-10763
▁yatumiwe	-10764
▁yemerera	-10765
▁yoroshye	-10766
▁yubatswe	-10767
▁yumuriro	-10768
▁zabukuru	-10769
▁zerekeye	-10770
Ntushobora	-10771
Surprising	-10772
byishimiye	-10773
byukusenge	-10774
byumvikana	-10775
garagambya	-10776
guhamagara	-10777
hagararaga	-10778
kwigishije	-10779
onvenience	-10780
sezeranije	-10781
shyigikiye	-10782
teganyijwe	-10783
tekerereze	-10784
urubyiruko	-10785
▁Australia	-10786
▁Christmas	-10787
▁Ibisubizo	-10788
▁Nakomanze	-10789
▁Namubwiye	-10790
▁Ntukifate	-10791
▁Ntumbwire	-10792
▁Nyabugogo	-10793
▁Nzabifata	-10794
▁Nzabikora	-10795
▁Nzahitamo	-10796
▁Rwabugiri	-10797
▁Saturdays	-10798
▁Sometimes	-10799
▁Ubushyuhe	-10800
▁Uzamfasha	-10801
▁abandoned	-10802
▁abivugaho	-10803
▁akoreshwa	-10804
▁announced	-10805
▁ararakara	-10806
▁azamfasha	-10807
▁bafitanye	-10808
▁bagombaga	-10809
▁bashoboye	-10810
▁batteries	-10811
▁bicuruzwa	-10812
▁biragenda	-10813
▁bizatinda	-10814
▁bookstore	-10815
▁burimunsi	-10816
▁byihariye	-10817
▁challenge	-10818
▁committed	-10819
▁confident	-10820
▁confirmed	-10821
▁contained	-10822
▁correctly	-10823
▁creatures	-10824
▁criticize	-10825
▁cyerekezo	-10826
▁destroyed	-10827
▁developed	-10828
▁dinosaurs	-10829
▁effective	-10830
▁elsewhere	-10831
▁explosion	-10832
▁fortunate	-10833
▁gitangaje	-10834
▁graduated	-10835
▁gucumbika	-10836
▁gukanguka	-10837
▁gukusanya	-10838
▁gushimira	-10839
▁gutegurwa	-10840
▁gutsindwa	-10841
▁harikintu	-10842
▁harumuntu	-10843
▁hashobora	-10844
▁ihendutse	-10845
▁imibonano	-10846
▁imigabane	-10847
▁injustice	-10848
▁insulting	-10849
▁insurance	-10850
▁intention	-10851
▁interview	-10852
▁irakomeye	-10853
▁iremereye	-10854
▁iroroshye	-10855
▁ishingiro	-10856
▁karangiye	-10857
▁kubigenza	-10858
▁kudufasha	-10859
▁kugutwara	-10860
▁kumenyera	-10861
▁kumukunda	-10862
▁kumwizera	-10863
▁kurangira	-10864
▁kutabwira	-10865
▁kutajyayo	-10866
▁kuzongera	-10867
▁kwitegura	-10868
▁mabwiriza	-10869
▁mpangayik	-10870
▁nabishaka	-10871
▁nakubwira	-10872
▁namusabye	-10873
▁nategetse	-10874
▁ndabyumva	-10875
▁nemeranya	-10876
▁ngufitiye	-10877
▁ntabikora	-10878
▁ntazemera	-10879
▁ntekerezo	-10880
▁ntibemera	-10881
▁ntisanzwe	-10882
▁ntiyitaba	-10883
▁ntukagire	-10884
▁nzakomeza	-10885
▁obviously	-10886
▁organized	-10887
▁ourselves	-10888
▁paragraph	-10889
▁participa	-10890
▁postcards	-10891
▁professor	-10892
▁relatives	-10893
▁represent	-10894
▁righteous	-10895
▁rubyiruko	-10896
▁ryanditse	-10897
▁sacrifice	-10898
▁secondary	-10899
▁secretary	-10900
▁sentenced	-10901
▁separated	-10902
▁supported	-10903
▁temporary	-10904
▁tuzajyayo	-10905
▁twateguye	-10906
▁ubikoraho	-10907
▁uburebure	-10908
▁ubusanzwe	-10909
▁ubutumire	-10910
▁ugerageje	-10911
▁ukabikora	-10912
▁umupolisi	-10913
▁umusaraba	-10914
▁umuvugizi	-10915
▁urakomeye	-10916
▁urupapuro	-10917
▁wahinduye	-10918
▁wishimiye	-10919
▁yagiranye	-10920
▁yashyizwe	-10921
▁yumuhondo	-10922
ibitekerezo	-10923
kurikiranye	-10924
▁Amafaranga	-10925
▁Bwongereza	-10926
▁Byanditswe	-10927
▁Nyabarongo	-10928
▁Parliament	-10929
▁Repubulika	-10930
▁Scriptures	-10931
▁Urateganya	-10932
▁abashyitsi	-10933
▁acceptable	-10934
▁amabwiriza	-10935
▁approached	-10936
▁ashyirwaho	-10937
▁assignment	-10938
▁azashobora	-10939
▁binyuranye	-10940
▁birababaje	-10941
▁bisobanuro	-10942
▁bitoroshye	-10943
▁bizakomeza	-10944
▁boundaries	-10945
▁busobanuro	-10946
▁byanshyize	-10947
▁byiringiro	-10948
▁candidates	-10949
▁companions	-10950
▁completely	-10951
▁completing	-10952
▁cyanditswe	-10953
▁determined	-10954
▁discovered	-10955
▁foreigners	-10956
▁gikurikira	-10957
▁graduating	-10958
▁gusohokana	-10959
▁gutunganya	-10960
▁guverinoma	-10961
▁igitangaza	-10962
▁imitingito	-10963
▁indahemuka	-10964
▁inevitable	-10965
▁invitation	-10966
▁kubivugaho	-10967
▁kugaragaza	-10968
▁kukubabaza	-10969
▁kumiterere	-10970
▁kumugirira	-10971
▁kumuryango	-10972
▁kuzirikana	-10973
▁kwirukanwa	-10974
▁kwitabwaho	-10975
▁mbyitayeho	-10976
▁mubijyanye	-10977
▁mugitaramo	-10978
▁nagerageje	-10979
▁narabikoze	-10980
▁nkoresheje	-10981
▁nsinziriye	-10982
▁ntazamenya	-10983
▁ntibakunda	-10984
▁ntitugomba	-10985
▁provisions	-10986
▁repubulika	-10987
▁rikoreshwa	-10988
▁shampiyona	-10989
▁suggestion	-10990
▁tereviziyo	-10991
▁throughout	-10992
▁tutibagiwe	-10993
▁twamusabye	-10994
▁umpamagare	-10995
▁umudendezo	-10996
▁umushahara	-10997
▁urusengero	-10998
▁wagerageza	-10999
▁yagaragaje	-11000
▁yagerageza	-11001
▁yambwiraga	-11002
▁yarashatse	-11003
▁yourselves	-11004
▁zinyuranye	-11005
Surprisingly	-11006
banyamahanga	-11007
frastructure	-11008
ishyirahamwe	-11009
kubiganiraho	-11010
kurikiranira	-11011
▁Icyangombwa	-11012
▁Imyitwarire	-11013
▁Ministerial	-11014
▁Muziranenge	-11015
▁Ntibisanzwe	-11016
▁Ositaraliya	-11017
▁Sinashakaga	-11018
▁abamarayika	-11019
▁abashakanye	-11020
▁abasirikare	-11021
▁accommodate	-11022
▁accountable	-11023
▁amadirishya	-11024
▁appropriate	-11025
▁baracyafite	-11026
▁bizashoboka	-11027
▁cyibiruhuko	-11028
▁discouraged	-11029
▁earthquakes	-11030
▁gariyamoshi	-11031
▁ibisekuruza	-11032
▁kidashobora	-11033
▁kumpamagara	-11034
▁kutazabwira	-11035
▁kuyikoresha	-11036
▁kuzunguruka	-11037
▁majyaruguru	-11038
▁ntdushobora	-11039
▁ntikiragera	-11040
▁ntiyabikora	-11041
▁preparation	-11042
▁responsible	-11043
▁significant	-11044
▁umusirikare	-11045
▁uzabigeraho	-11046
▁yahagaritse	-11047
dashishikajwe	-11048
grandchildren	-11049
▁Abanyamerika	-11050
▁Ndabashimira	-11051
▁Ntawushobora	-11052
▁Sinagushinja	-11053
▁abanyarwanda	-11054
▁bitunguranye	-11055
▁consequences	-11056
▁gusobanurira	-11057
▁kubigerageza	-11058
▁kubyitwaramo	-11059
▁mpuzabitsina	-11060
▁mubitekerezo	-11061
▁natekerezaga	-11062
▁ndakwinginze	-11063
▁neighborhood	-11064
▁nshishikajwe	-11065
▁ntibabishaka	-11066
▁ntiyashoboye	-11067
▁ntukibagirwe	-11068
▁productivity	-11069
▁ubwishingizi	-11070
▁universities	-11071
▁uzasezeranya	-11072
▁watekerezaga	-11073
▁yabanyeshuri	-11074
▁yahagaritswe	-11075
▁International	-11076
▁Turashoboraku	-11077
▁burengerazuba	-11078
▁bushakashatsi	-11079
▁communication	-11080
▁extraordinary	-11081
▁gusobanukirwa	-11082
▁inconvenience	-11083
▁investigation	-11084
▁nyirabayazana	-11085
▁nzakumenyesha	-11086
▁nzashyingirwa	-11087
▁twatandukanye	-11088
▁ubishyigikiye	-11089
▁umunyamahirwe	-11090
▁Ikoranabuhanga	-11091
▁abanyamuryango	-11092
▁byingirakamaro	-11093
▁ikoranabuhanga	-11094
▁imyigaragambyo	-11095
▁ntibabishobora	-11096
▁ntituzashobora	-11097
▁ubushakashatsi	-11098
▁understandable	-11099
0.	-11100
06	-11101
15	-11102
4,	-11103
86	-11104
:"	-11105
AR	-11106
BC	-11107
Ba	-11108
DS	-11109
De	-11110
Dr	-11111
Du	-11112
GW	-11113
HC	-11114
HE	-11115
HI	-11116
IM	-11117
IP	-11118
Is	-11119
Ki	-11120
Kw	-11121
Lu	-11122
MW	-11123
Me	-11124
Mw	-11125
ND	-11126
OV	-11127
Oh	-11128
Ro	-11129
Ru	-11130
SS	-11131
Sh	-11132
Su	-11133
Wa	-11134
aw	-11135
cs	-11136
ii	-11137
ij	-11138
iy	-11139
lp	-11140
rk	-11141
sc	-11142
tn	-11143
ub	-11144
yP	-11145
ym	-11146
▁$	-11147
▁2	-11148
▁:	-11149
▁Q	-11150
15)	-11151
Did	-11152
GWE	-11153
HIN	-11154
Hin	-11155
IDS	-11156
IMA	-11157
Iri	-11158
Its	-11159
Iyi	-11160
Nde	-11161
Nki	-11162
Sal	-11163
Twa	-11164
Uld	-11165
Who	-11166
Why	-11167
Yas	-11168
Yet	-11169
abu	-11170
ain	-11171
ayi	-11172
bio	-11173
bor	-11174
ccu	-11175
cel	-11176
chi	-11177
cho	-11178
chu	-11179
cks	-11180
col	-11181
cro	-11182
cth	-11183
dah	-11184
del	-11185
edi	-11186
eds	-11187
eri	-11188
fly	-11189
fre	-11190
gam	-11191
gre	-11192
him	-11193
hop	-11194
how	-11195
hra	-11196
idi	-11197
ies	-11198
iga	-11199
cla	-11200
igi	-11201
ile	-11202
ime	-11203
inn	-11204
ird	-11205
ite	-11206
iyi	-11207
jen	-11208
kar	-11209
kay	-11210
kem	-11211
kie	-11212
kol	-11213
lat	-11214
lee	-11215
lev	-11216
lwe	-11217
lyn	-11218
mor	-11219
mwo	-11220
nel	-11221
ngi	-11222
nie	-11223
nom	-11224
oba	-11225
och	-11226
ola	-11227
olt	-11228
org	-11229
ori	-11230
oru	-11231
oza	-11232
pen	-11233
ppy	-11234
rad	-11235
rub	-11236
rue	-11237
sal	-11238
sie	-11239
sil	-11240
ssa	-11241
tue	-11242
two	-11243
uga	-11244
uku	-11245
ume	-11246
ums	-11247
uwa	-11248
uwe	-11249
why	-11250
wri	-11251
xas	-11252
xic	-11253
yal	-11254
yij	-11255
zin	-11256
▁Au	-11257
▁Bl	-11258
▁DA	-11259
▁DJ	-11260
▁En	-11261
▁Fo	-11262
▁Hr	-11263
▁Ig	-11264
▁Kw	-11265
▁Mp	-11266
▁Ms	-11267
▁Nk	-11268
▁Nt	-11269
▁Ra	-11270
▁Uw	-11271
▁Wu	-11272
▁ap	-11273
▁ay	-11274
▁az	-11275
▁eh	-11276
▁fI	-11277
▁hy	-11278
▁ig	-11279
▁ow	-11280
▁pm	-11281
▁sy	-11282
▁tv	-11283
▁ug	-11284
864,	-11285
Ambu	-11286
Bari	-11287
Beth	-11288
Ever	-11289
Hari	-11290
Lone	-11291
Mary	-11292
Pame	-11293
Ubwo	-11294
With	-11295
Wowe	-11296
Your	-11297
alah	-11298
ango	-11299
uzu	-11300
▁Cy	-11301
anne	-11302
aper	-11303
aria	-11304
ater	-11305
atra	-11306
atti	-11307
atwa	-11308
bage	-11309
baro	-11310
bemo	-11311
bika	-11312
bles	-11313
both	-11314
buha	-11315
cago	-11316
cana	-11317
ceti	-11318
chen	-11319
cher	-11320
chet	-11321
cika	-11322
cike	-11323
ckta	-11324
cque	-11325
cuki	-11326
cuku	-11327
daya	-11328
does	-11329
dula	-11330
duro	-11331
ekwe	-11332
endi	-11333
enne	-11334
esha	-11335
esso	-11336
esty	-11337
eves	-11338
fall	-11339
fari	-11340
firm	-11341
futi	-11342
gans	-11343
gayi	-11344
gega	-11345
gege	-11346
gena	-11347
gery	-11348
geya	-11349
giva	-11350
give	-11351
gogi	-11352
goyi	-11353
guta	-11354
haha	-11355
hahi	-11356
hake	-11357
have	-11358
heba	-11359
hehe	-11360
hene	-11361
heto	-11362
hewe	-11363
hida	-11364
hili	-11365
himi	-11366
hizi	-11367
hizu	-11368
hode	-11369
hold	-11370
host	-11371
huje	-11372
huli	-11373
huti	-11374
hyan	-11375
idel	-11376
ires	-11377
isan	-11378
isid	-11379
iton	-11380
itwa	-11381
itwi	-11382
kaho	-11383
kaje	-11384
kata	-11385
kati	-11386
kibi	-11387
kibu	-11388
kiya	-11389
kize	-11390
koza	-11391
kuge	-11392
kune	-11393
kuyi	-11394
kuza	-11395
lanF	-11396
laya	-11397
layo	-11398
lele	-11399
▁Pu	-11400
aden	-11401
feed	-11402
feri	-11403
gelo	-11404
guso	-11405
hurs	-11406
indo	-11407
keys	-11408
leon	-11409
lian	-11410
lied	-11411
life	-11412
luct	-11413
lyne	-11414
mari	-11415
mary	-11416
mate	-11417
mbna	-11418
mega	-11419
mits	-11420
mogi	-11421
mple	-11422
muro	-11423
muzi	-11424
neli	-11425
neye	-11426
oded	-11427
odka	-11428
odor	-11429
ogen	-11430
onko	-11431
ouke	-11432
ouse	-11433
outh	-11434
pari	-11435
pent	-11436
pher	-11437
pled	-11438
poly	-11439
prin	-11440
qual	-11441
rabu	-11442
race	-11443
radi	-11444
raro	-11445
razi	-11446
rehe	-11447
remi	-11448
remu	-11449
rene	-11450
rice	-11451
rizo	-11452
rozi	-11453
ruce	-11454
runo	-11455
rusi	-11456
ruye	-11457
saki	-11458
seti	-11459
sica	-11460
sige	-11461
siri	-11462
sobe	-11463
soro	-11464
ssia	-11465
stre	-11466
taga	-11467
tage	-11468
tant	-11469
tate	-11470
tati	-11471
tavu	-11472
tayu	-11473
taza	-11474
tebo	-11475
teje	-11476
temu	-11477
tent	-11478
tery	-11479
tesi	-11480
test	-11481
than	-11482
tien	-11483
time	-11484
tish	-11485
tizi	-11486
tose	-11487
tual	-11488
tuza	-11489
uish	-11490
urry	-11491
used	-11492
utch	-11493
utsi	-11494
utwi	-11495
vada	-11496
vade	-11497
vaho	-11498
vamo	-11499
imp	-11500
▁CY	-11501
Eric	-11502
eric	-11503
fast	-11504
fini	-11505
frey	-11506
vine	-11507
vuka	-11508
vumo	-11509
waho	-11510
wave	-11511
wawe	-11512
what	-11513
woga	-11514
yabo	-11515
yafa	-11516
yazo	-11517
yley	-11518
yoli	-11519
yose	-11520
yumu	-11521
zara	-11522
zava	-11523
zawa	-11524
zura	-11525
zuze	-11526
▁100	-11527
▁500	-11528
▁Aar	-11529
▁Acc	-11530
▁Ade	-11531
▁Agi	-11532
▁Ahu	-11533
▁Aut	-11534
▁Bar	-11535
▁Bav	-11536
▁Ben	-11537
▁Bet	-11538
▁Bou	-11539
▁Buy	-11540
▁Bwe	-11541
▁Che	-11542
▁Cho	-11543
▁Cla	-11544
▁Con	-11545
▁Cou	-11546
▁Cye	-11547
▁Des	-11548
▁Dia	-11549
▁Dor	-11550
▁Dra	-11551
▁Dwi	-11552
▁Egi	-11553
▁Eze	-11554
▁Hea	-11555
▁Iga	-11556
▁Ish	-11557
▁Jen	-11558
▁Jya	-11559
▁Jye	-11560
▁Klo	-11561
▁Kon	-11562
▁Lin	-11563
▁Mbu	-11564
▁Mwe	-11565
▁Mwi	-11566
▁Net	-11567
▁Nsi	-11568
▁Pas	-11569
▁Pri	-11570
▁Ren	-11571
▁Ron	-11572
▁Rwi	-11573
▁Sil	-11574
▁Sod	-11575
▁Ste	-11576
▁Swa	-11577
▁Tor	-11578
▁Try	-11579
▁Tur	-11580
▁Use	-11581
▁VIP	-11582
▁Won	-11583
▁aid	-11584
▁alt	-11585
▁ano	-11586
▁ars	-11587
▁ass	-11588
▁asu	-11589
▁awe	-11590
▁ayi	-11591
▁aze	-11592
▁ben	-11593
▁bow	-11594
▁cas	-11595
▁dad	-11596
▁dia	-11597
▁dip	-11598
▁dry	-11599
▁VW	-11600
Hano	-11601
Nitu	-11602
essy	-11603
kona	-11604
lton	-11605
rona	-11606
sert	-11607
wuli	-11608
▁Law	-11609
▁eld	-11610
▁eth	-11611
▁eve	-11612
▁exI	-11613
▁fit	-11614
▁fra	-11615
▁gro	-11616
▁gui	-11617
▁hun	-11618
▁imy	-11619
▁ise	-11620
▁iva	-11621
▁ivu	-11622
▁iye	-11623
▁iyu	-11624
▁ken	-11625
▁kis	-11626
▁kwo	-11627
▁lep	-11628
▁lob	-11629
▁lod	-11630
▁mad	-11631
▁max	-11632
▁mus	-11633
▁mvu	-11634
▁nab	-11635
▁nay	-11636
▁ndo	-11637
▁net	-11638
▁nij	-11639
▁nis	-11640
▁niz	-11641
▁oya	-11642
▁pie	-11643
▁pop	-11644
▁rev	-11645
▁roc	-11646
▁rot	-11647
▁rou	-11648
▁row	-11649
▁shy	-11650
▁sis	-11651
▁sne	-11652
▁squ	-11653
▁sti	-11654
▁swi	-11655
▁tat	-11656
▁tha	-11657
▁thu	-11658
▁toi	-11659
▁tui	-11660
▁uMu	-11661
▁ube	-11662
▁uva	-11663
▁uve	-11664
▁uvu	-11665
▁uwe	-11666
▁uze	-11667
▁wet	-11668
▁wol	-11669
▁yap	-11670
▁yic	-11671
▁zip	-11672
Abana	-11673
AlanF	-11674
Every	-11675
Mbere	-11676
Ndagi	-11677
Nimba	-11678
after	-11679
aliza	-11680
amaze	-11681
anada	-11682
andle	-11683
aneme	-11684
anije	-11685
anika	-11686
ariko	-11687
arize	-11688
arter	-11689
asant	-11690
aster	-11691
asuku	-11692
birwa	-11693
bonke	-11694
bukwa	-11695
bunda	-11696
buret	-11697
bwato	-11698
bwoba	-11699
mwu	-11700
uel	-11701
Nuko	-11702
bise	-11703
pusi	-11704
reek	-11705
▁Kay	-11706
▁Rec	-11707
▁gym	-11708
▁raw	-11709
bilan	-11710
byogo	-11711
celet	-11712
cence	-11713
chris	-11714
ciano	-11715
cking	-11716
cribe	-11717
ctify	-11718
cunga	-11719
cuses	-11720
daste	-11721
dindi	-11722
dusha	-11723
elcon	-11724
fende	-11725
ficed	-11726
gange	-11727
ganis	-11728
ganzo	-11729
gatwa	-11730
gengo	-11731
gijwe	-11732
gishi	-11733
gizwe	-11734
gonda	-11735
goshe	-11736
gwaga	-11737
hanwa	-11738
henge	-11739
herve	-11740
herwa	-11741
hings	-11742
hitan	-11743
holic	-11744
hombo	-11745
hower	-11746
ijing	-11747
imbwa	-11748
inese	-11749
isabo	-11750
ishin	-11751
itoes	-11752
james	-11753
jinya	-11754
journ	-11755
jyema	-11756
kabya	-11757
karta	-11758
leste	-11759
lieve	-11760
lliam	-11761
mbaga	-11762
mbari	-11763
mbaro	-11764
mbaza	-11765
mbaze	-11766
mbira	-11767
mbogo	-11768
mbuwe	-11769
menta	-11770
menyo	-11771
mfite	-11772
minsi	-11773
monyi	-11774
mvugo	-11775
mwica	-11776
ntume	-11777
onial	-11778
onike	-11779
opoly	-11780
orofe	-11781
oroha	-11782
ounds	-11783
oween	-11784
panye	-11785
ptist	-11786
rable	-11787
rambo	-11788
ranyo	-11789
remwe	-11790
rents	-11791
rijwe	-11792
ritse	-11793
rived	-11794
rogan	-11795
rough	-11796
rwaga	-11797
ryaga	-11798
setse	-11799
nai	-11800
tty	-11801
amad	-11802
city	-11803
nigi	-11804
pimo	-11805
▁Ani	-11806
abamu	-11807
ander	-11808
kwere	-11809
loved	-11810
omeza	-11811
osity	-11812
ostco	-11813
shaho	-11814
simba	-11815
sizwe	-11816
stant	-11817
tambo	-11818
tanda	-11819
tandu	-11820
tange	-11821
temba	-11822
tende	-11823
teria	-11824
tesha	-11825
tetse	-11826
their	-11827
tible	-11828
tonzi	-11829
tunga	-11830
tunze	-11831
utine	-11832
ution	-11833
venal	-11834
verty	-11835
xique	-11836
yanka	-11837
yanze	-11838
yeshu	-11839
yobwa	-11840
young	-11841
yutse	-11842
yweye	-11843
▁Aime	-11844
▁Alan	-11845
▁Aven	-11846
▁Bana	-11847
▁Boko	-11848
▁CYIL	-11849
▁Dadu	-11850
▁Dama	-11851
▁Dina	-11852
▁Done	-11853
▁Dora	-11854
▁Elie	-11855
▁Finn	-11856
▁Fred	-11857
▁Gaga	-11858
▁Gihu	-11859
▁Gran	-11860
▁Gren	-11861
▁Guin	-11862
▁Habi	-11863
▁Hall	-11864
▁Hama	-11865
▁Hero	-11866
▁Ibyi	-11867
▁Iryo	-11868
▁Ivan	-11869
▁Kamb	-11870
▁Kami	-11871
▁Kani	-11872
▁Kawa	-11873
▁Kazi	-11874
▁Kivu	-11875
▁Know	-11876
▁Kumu	-11877
▁Kuwa	-11878
▁Loti	-11879
▁Miba	-11880
▁Moni	-11881
▁Mugi	-11882
▁Muko	-11883
▁Mutu	-11884
▁Naku	-11885
▁Nick	-11886
▁Njya	-11887
▁Pacy	-11888
▁Papa	-11889
▁Park	-11890
▁Plan	-11891
▁Rela	-11892
▁Rema	-11893
▁Ruci	-11894
▁Saul	-11895
▁Scot	-11896
▁Soma	-11897
▁Tuzi	-11898
▁Tyle	-11899
▁Fi	-11900
▁Fu	-11901
Naha	-11902
iley	-11903
mane	-11904
nock	-11905
rles	-11906
shua	-11907
ults	-11908
zman	-11909
▁Del	-11910
▁Pak	-11911
▁Uno	-11912
Nyama	-11913
ahaye	-11914
hinja	-11915
kevin	-11916
panyi	-11917
rings	-11918
ships	-11919
tents	-11920
▁Baha	-11921
▁Find	-11922
▁Hawa	-11923
▁Ubwi	-11924
▁Umva	-11925
▁Vuba	-11926
▁Wabi	-11927
▁Want	-11928
▁Ward	-11929
▁Wera	-11930
▁Wine	-11931
▁Yamu	-11932
▁Yira	-11933
▁abak	-11934
▁acqu	-11935
▁affe	-11936
▁asse	-11937
▁ataz	-11938
▁athe	-11939
▁azwi	-11940
▁babe	-11941
▁baha	-11942
▁bama	-11943
▁bava	-11944
▁beve	-11945
▁biga	-11946
▁bigi	-11947
▁biku	-11948
▁bimu	-11949
▁bine	-11950
▁biot	-11951
▁bize	-11952
▁bles	-11953
▁bobi	-11954
▁bren	-11955
▁buhe	-11956
▁buji	-11957
▁buys	-11958
▁byin	-11959
▁byon	-11960
▁cafe	-11961
▁cant	-11962
▁carr	-11963
▁cate	-11964
▁cats	-11965
▁cent	-11966
▁coca	-11967
▁cola	-11968
▁comm	-11969
▁comu	-11970
▁dare	-11971
▁diam	-11972
▁disi	-11973
▁dogi	-11974
▁dute	-11975
▁east	-11976
▁elie	-11977
▁esca	-11978
▁evan	-11979
▁feed	-11980
▁fees	-11981
▁feri	-11982
▁figu	-11983
▁fled	-11984
▁fomu	-11985
▁fred	-11986
▁gake	-11987
▁gihu	-11988
▁gree	-11989
▁guhe	-11990
▁guhi	-11991
▁guhu	-11992
▁guke	-11993
▁gupa	-11994
▁hame	-11995
▁hasn	-11996
▁hato	-11997
▁hegi	-11998
▁host	-11999
Tuza	-12000
ambu	-12001
ency	-12002
jijo	-12003
▁Sue	-12004
▁jam	-12005
▁syn	-12006
aming	-12007
cikwe	-12008
licts	-12009
matic	-12010
sycho	-12011
tsiye	-12012
zanya	-12013
▁Biwa	-12014
▁Bizi	-12015
▁Bush	-12016
▁Ibya	-12017
▁Luka	-12018
▁Napo	-12019
▁Nsen	-12020
▁Vice	-12021
▁ends	-12022
▁hana	-12023
▁huge	-12024
▁icye	-12025
▁imfu	-12026
▁impe	-12027
▁inyi	-12028
▁irya	-12029
▁isan	-12030
▁ishi	-12031
▁ivan	-12032
▁kayi	-12033
▁kimu	-12034
▁kino	-12035
▁kiva	-12036
▁kode	-12037
▁kote	-12038
▁kuby	-12039
▁kugi	-12040
▁kuny	-12041
▁kuti	-12042
▁kwis	-12043
▁lega	-12044
▁lets	-12045
▁lord	-12046
▁lots	-12047
▁male	-12048
▁mare	-12049
▁mari	-12050
▁mary	-12051
▁mato	-12052
▁mire	-12053
▁miri	-12054
▁mise	-12055
▁moon	-12056
▁muga	-12057
▁muka	-12058
▁mund	-12059
▁muta	-12060
▁muvu	-12061
▁muza	-12062
▁muze	-12063
▁naza	-12064
▁nazo	-12065
▁ndab	-12066
▁ning	-12067
▁nize	-12068
▁nizo	-12069
▁nkan	-12070
▁nkuw	-12071
▁noti	-12072
▁ntan	-12073
▁ntun	-12074
▁nuwa	-12075
▁nuwo	-12076
▁nyir	-12077
▁obli	-12078
▁okay	-12079
▁oran	-12080
▁orna	-12081
▁owns	-12082
▁pais	-12083
▁pega	-12084
▁pens	-12085
▁pers	-12086
▁pure	-12087
▁rate	-12088
▁rats	-12089
▁raul	-12090
▁rebu	-12091
▁reca	-12092
▁remi	-12093
▁remy	-12094
▁rida	-12095
▁rita	-12096
▁riti	-12097
▁rose	-12098
▁rubi	-12099
dney	-12100
gaby	-12101
thms	-12102
▁Egy	-12103
▁cyc	-12104
▁pig	-12105
akazi	-12106
eshwa	-12107
forms	-12108
ibibi	-12109
kumpa	-12110
pfuka	-12111
pfumu	-12112
▁Badu	-12113
▁Bara	-12114
▁Bobi	-12115
▁Bolo	-12116
▁Fami	-12117
▁Keny	-12118
▁Mose	-12119
▁OhBe	-12120
▁kany	-12121
▁ruri	-12122
▁ruse	-12123
▁rush	-12124
▁rwim	-12125
▁ryan	-12126
▁sees	-12127
▁sequ	-12128
▁serv	-12129
▁shit	-12130
▁shut	-12131
▁sibi	-12132
▁sida	-12133
▁sima	-12134
▁sins	-12135
▁sisi	-12136
▁soda	-12137
▁soni	-12138
▁tanu	-12139
▁tatu	-12140
▁thea	-12141
▁thre	-12142
▁tike	-12143
▁tubu	-12144
▁tuli	-12145
▁tuma	-12146
▁tuyi	-12147
▁umpe	-12148
▁umur	-12149
▁unha	-12150
▁unne	-12151
▁unre	-12152
▁unyi	-12153
▁urwa	-12154
▁utwo	-12155
▁vase	-12156
▁wave	-12157
▁whom	-12158
▁wita	-12159
▁yaga	-12160
▁yakw	-12161
▁yasi	-12162
▁yata	-12163
▁yiba	-12164
▁yisi	-12165
▁yiwe	-12166
▁yoro	-12167
▁zana	-12168
▁zara	-12169
▁zavu	-12170
▁zigi	-12171
▁zihe	-12172
▁zika	-12173
▁zita	-12174
▁ziva	-12175
▁zubu	-12176
Gasani	-12177
Hariho	-12178
Kalisa	-12179
Nkunda	-12180
Ukunda	-12181
Umwami	-12182
Yester	-12183
ahantu	-12184
ahubwo	-12185
andans	-12186
angira	-12187
anijwe	-12188
anyije	-12189
ashaka	-12190
assion	-12191
atanze	-12192
attier	-12193
banire	-12194
bibona	-12195
bigura	-12196
bisaba	-12197
boneke	-12198
byumba	-12199
ius	-12200
Kuri	-12201
Kuva	-12202
cius	-12203
hess	-12204
▁Joe	-12205
▁Say	-12206
bingo	-12207
jyira	-12208
jyiye	-12209
myabu	-12210
seswa	-12211
usted	-12212
▁phra	-12213
▁vowe	-12214
bazaga	-12215
cating	-12216
ceceka	-12217
celona	-12218
cified	-12219
ciriwe	-12220
cktail	-12221
cukiro	-12222
dation	-12223
ddenly	-12224
dition	-12225
dufite	-12226
dukoko	-12227
engers	-12228
ession	-12229
fashis	-12230
forman	-12231
funzwe	-12232
gamiye	-12233
gamizi	-12234
ganaga	-12235
garaje	-12236
gasani	-12237
gayire	-12238
gereki	-12239
gikire	-12240
giriwe	-12241
gukina	-12242
guriye	-12243
gutega	-12244
hannye	-12245
hatira	-12246
herako	-12247
hereje	-12248
hereze	-12249
hobore	-12250
horera	-12251
huriro	-12252
iburyo	-12253
ikintu	-12254
indimi	-12255
inging	-12256
intare	-12257
isenga	-12258
ishami	-12259
ishime	-12260
isting	-12261
karani	-12262
katiwe	-12263
kemere	-12264
kenshi	-12265
koloni	-12266
komera	-12267
koroha	-12268
kunywa	-12269
kuriye	-12270
lating	-12271
levard	-12272
licant	-12273
limate	-12274
malaya	-12275
mamaje	-12276
mamaye	-12277
mbirwa	-12278
mbnail	-12279
melain	-12280
mezaga	-12281
mittee	-12282
mukira	-12283
murika	-12284
mvishe	-12285
mwishe	-12286
myenda	-12287
nakoze	-12288
nation	-12289
nganye	-12290
ordina	-12291
ounded	-12292
oustic	-12293
pagani	-12294
pating	-12295
person	-12296
pfushe	-12297
rafata	-12298
ragaza	-12299
Paul	-12300
four	-12301
ptic	-12302
▁MAR	-12303
Ninde	-12304
berry	-12305
rages	-12306
▁Fort	-12307
▁Help	-12308
▁Tate	-12309
▁appa	-12310
Mugihe	-12311
alties	-12312
biziga	-12313
except	-12314
fatire	-12315
gimana	-12316
himana	-12317
kinawa	-12318
mezabu	-12319
mikino	-12320
rageza	-12321
rahira	-12322
ranywa	-12323
rasire	-12324
reased	-12325
regera	-12326
rekera	-12327
rengwa	-12328
resses	-12329
rikoko	-12330
riraho	-12331
rities	-12332
ruhara	-12333
rushye	-12334
shijwe	-12335
shinge	-12336
shinya	-12337
sigaje	-12338
sohoke	-12339
subize	-12340
suraga	-12341
takaye	-12342
taloni	-12343
tances	-12344
tanzwe	-12345
tashye	-12346
tegeka	-12347
tegeke	-12348
teguro	-12349
teguwe	-12350
terate	-12351
thened	-12352
timate	-12353
tukura	-12354
umujyi	-12355
umweru	-12356
usting	-12357
vuyemo	-12358
wigeze	-12359
yijuka	-12360
yinywa	-12361
yirasa	-12362
yobore	-12363
yobowe	-12364
yushya	-12365
zaniye	-12366
ziguye	-12367
▁Abami	-12368
▁Abata	-12369
▁Abiru	-12370
▁Agnes	-12371
▁Allah	-12372
▁Alpha	-12373
▁Amafi	-12374
▁Amata	-12375
▁Amazi	-12376
▁Araba	-12377
▁Aroni	-12378
▁Aying	-12379
▁Azaza	-12380
▁Azine	-12381
▁Biran	-12382
▁Bisho	-12383
▁Brazi	-12384
▁Bruce	-12385
▁Byose	-12386
▁Chapo	-12387
▁Eight	-12388
▁Elisa	-12389
▁Emera	-12390
▁Emman	-12391
▁Erick	-12392
▁Execu	-12393
▁Extra	-12394
▁Gahon	-12395
▁Gatsi	-12396
▁Geats	-12397
▁Genda	-12398
▁Greek	-12399
Subu	-12400
iled	-12401
moil	-12402
tors	-12403
▁Los	-12404
▁ilk	-12405
▁oil	-12406
ibihe	-12407
iland	-12408
senga	-12409
sense	-12410
sinzi	-12411
zanne	-12412
▁Kanu	-12413
▁Ruvu	-12414
▁Uzan	-12415
▁Visi	-12416
▁iron	-12417
▁medi	-12418
▁tail	-12419
▁uzan	-12420
▁vacc	-12421
icyaha	-12422
kirisi	-12423
kiriwe	-12424
mental	-12425
mitted	-12426
velope	-12427
▁Allen	-12428
▁Bizan	-12429
▁Harry	-12430
▁Ibiro	-12431
▁Igice	-12432
▁Ikigo	-12433
▁Iriya	-12434
▁Jeffe	-12435
▁Julie	-12436
▁Kloop	-12437
▁Korea	-12438
▁Laden	-12439
▁Massa	-12440
▁Mfata	-12441
▁Moses	-12442
▁Mukan	-12443
▁Nakwi	-12444
▁Ndagu	-12445
▁Ntiba	-12446
▁Nturi	-12447
▁Ntuzi	-12448
▁Numva	-12449
▁Nyaga	-12450
▁Orche	-12451
▁Other	-12452
▁Pazzo	-12453
▁Pisid	-12454
▁Rwaka	-12455
▁Salah	-12456
▁Shaka	-12457
▁Sitwi	-12458
▁Tanga	-12459
▁Texas	-12460
▁Their	-12461
▁Ubura	-12462
▁Usaba	-12463
▁Wakwi	-12464
▁Whose	-12465
▁Young	-12466
▁ababa	-12467
▁ababi	-12468
▁abaha	-12469
▁abawe	-12470
▁abayi	-12471
▁abeho	-12472
▁abizi	-12473
▁added	-12474
▁adult	-12475
▁aguma	-12476
▁ahana	-12477
▁ahura	-12478
▁akaba	-12479
▁akazu	-12480
▁akore	-12481
▁alice	-12482
▁amaho	-12483
▁amato	-12484
▁ample	-12485
▁anger	-12486
▁anywa	-12487
▁arazi	-12488
▁arebe	-12489
▁ariho	-12490
▁arira	-12491
▁arise	-12492
▁arrow	-12493
▁assis	-12494
▁ataje	-12495
▁atamu	-12496
▁awake	-12497
▁azaku	-12498
▁badas	-12499
▁16	-12500
pper	-12501
▁Ask	-12502
▁Iby	-12503
Nanya	-12504
Sorry	-12505
aneza	-12506
edwin	-12507
kenga	-12508
llets	-12509
would	-12510
▁Dube	-12511
▁Keza	-12512
▁curi	-12513
▁ille	-12514
▁ndya	-12515
▁pill	-12516
▁pull	-12517
▁runs	-12518
▁sons	-12519
▁ukwa	-12520
▁view	-12521
▁vita	-12522
▁warm	-12523
▁zuba	-12524
mibare	-12525
opatra	-12526
sezeye	-12527
tarati	-12528
tuyemo	-12529
▁bambo	-12530
▁bamwa	-12531
▁bande	-12532
▁bange	-12533
▁banks	-12534
▁banyi	-12535
▁basen	-12536
▁bashy	-12537
▁basic	-12538
▁batan	-12539
▁bible	-12540
▁bijya	-12541
▁billy	-12542
▁bored	-12543
▁burya	-12544
▁bwije	-12545
▁bwiki	-12546
▁bwisi	-12547
▁bworo	-12548
▁bwubu	-12549
▁byago	-12550
▁byama	-12551
▁byayo	-12552
▁byibi	-12553
▁byisi	-12554
▁byuyu	-12555
▁campa	-12556
▁cared	-12557
▁caree	-12558
▁cares	-12559
▁chalk	-12560
▁chemi	-12561
▁chess	-12562
▁colon	-12563
▁cyaha	-12564
▁cyapa	-12565
▁cyera	-12566
▁cyiki	-12567
▁cyita	-12568
▁cyuyu	-12569
▁dates	-12570
▁david	-12571
▁dirck	-12572
▁doors	-12573
▁drove	-12574
▁enemy	-12575
▁ester	-12576
▁exten	-12577
▁faces	-12578
▁fails	-12579
▁fever	-12580
▁floor	-12581
▁freed	-12582
▁fruit	-12583
▁gaell	-12584
▁grass	-12585
▁greet	-12586
▁guhum	-12587
▁gusom	-12588
▁gutan	-12589
▁hives	-12590
▁holes	-12591
▁ibaha	-12592
▁ibera	-12593
▁ibicu	-12594
▁ibigo	-12595
▁ibiza	-12596
▁ibura	-12597
▁igira	-12598
▁igiye	-12599
gner	-12600
llion	-12601
▁Anat	-12602
▁Andy	-12603
▁Cons	-12604
▁Sign	-12605
▁bags	-12606
▁devo	-12607
▁oath	-12608
Wigeze	-12609
holars	-12610
jimana	-12611
onents	-12612
othgar	-12613
spects	-12614
zazana	-12615
▁Board	-12616
▁Freet	-12617
▁Igare	-12618
▁Nasha	-12619
▁YouTu	-12620
▁bedri	-12621
▁board	-12622
▁iguha	-12623
▁ihora	-12624
▁ihuze	-12625
▁ikibi	-12626
▁ikiza	-12627
▁ikore	-12628
▁ikuru	-12629
▁imeze	-12630
▁imico	-12631
▁imiru	-12632
▁imizi	-12633
▁inani	-12634
▁incom	-12635
▁insis	-12636
▁ipusi	-12637
▁isaba	-12638
▁iwawe	-12639
▁iyobo	-12640
▁izagu	-12641
▁izaza	-12642
▁izima	-12643
▁izuru	-12644
▁james	-12645
▁kabyo	-12646
▁kamwe	-12647
▁karim	-12648
▁keeps	-12649
▁keria	-12650
▁kills	-12651
▁kubwe	-12652
▁kucyu	-12653
▁kungu	-12654
▁kuntu	-12655
▁kwacu	-12656
▁kwaka	-12657
▁larry	-12658
▁leads	-12659
▁legis	-12660
▁lobby	-12661
▁manga	-12662
▁maria	-12663
▁marke	-12664
▁massa	-12665
▁mbeho	-12666
▁mbura	-12667
▁meals	-12668
▁micro	-12669
▁minds	-12670
▁mucye	-12671
▁mumpe	-12672
▁mwami	-12673
▁mwuka	-12674
▁nabwo	-12675
▁nabyi	-12676
▁nacyo	-12677
▁nanze	-12678
▁natwa	-12679
▁ndaba	-12680
▁ndabi	-12681
▁ndaje	-12682
▁ndibu	-12683
▁ndiku	-12684
▁ndimu	-12685
▁ndiwe	-12686
▁nfite	-12687
▁ngahe	-12688
▁ngufu	-12689
▁nguha	-12690
▁nibye	-12691
▁nicya	-12692
▁nimwi	-12693
▁niryo	-12694
▁nkaha	-12695
▁nkako	-12696
▁nkana	-12697
▁nkawe	-12698
▁nkayo	-12699
Take	-12700
xico	-12701
ikibi	-12702
▁Didi	-12703
▁Live	-12704
▁Polo	-12705
▁Pope	-12706
▁Yvan	-12707
▁flew	-12708
▁shya	-12709
▁ubwu	-12710
▁zuku	-12711
kennye	-12712
munati	-12713
twitse	-12714
umwuka	-12715
▁Gahin	-12716
▁Kings	-12717
▁Order	-12718
▁bazwi	-12719
▁itora	-12720
▁nkiyo	-12721
▁nkore	-12722
▁nkota	-12723
▁nkuwa	-12724
▁nkuwi	-12725
▁nkuyu	-12726
▁north	-12727
▁ntaku	-12728
▁ntama	-12729
▁ntawe	-12730
▁ntego	-12731
▁nteko	-12732
▁ntigi	-12733
▁ntika	-12734
▁ntiye	-12735
▁ntuba	-12736
▁nundi	-12737
▁nzabi	-12738
▁nzaza	-12739
▁nzego	-12740
▁nzima	-12741
▁opera	-12742
▁owned	-12743
▁owner	-12744
▁paint	-12745
▁pazzo	-12746
▁peter	-12747
▁posta	-12748
▁prize	-12749
▁quiet	-12750
▁radia	-12751
▁ragga	-12752
▁reign	-12753
▁repor	-12754
▁roses	-12755
▁rundi	-12756
▁rural	-12757
▁rwama	-12758
▁rwari	-12759
▁rwema	-12760
▁ryaje	-12761
▁scary	-12762
▁score	-12763
▁serwa	-12764
▁shade	-12765
▁shaka	-12766
▁shefu	-12767
▁shema	-12768
▁shops	-12769
▁silly	-12770
▁sings	-12771
▁sixty	-12772
▁skele	-12773
▁steal	-12774
▁stone	-12775
▁stret	-12776
▁suspi	-12777
▁swear	-12778
▁sworn	-12779
▁tandu	-12780
▁taste	-12781
▁taxis	-12782
▁tears	-12783
▁tenth	-12784
▁theat	-12785
▁tower	-12786
▁trave	-12787
▁tries	-12788
▁trips	-12789
▁tubyi	-12790
▁turya	-12791
▁twabi	-12792
▁twaha	-12793
▁twiga	-12794
▁ubaho	-12795
▁ubaze	-12796
▁ubuki	-12797
▁ugana	-12798
▁uguma	-12799
Namu	-12800
Tura	-12801
hony	-12802
Abami	-12803
ccasi	-12804
lands	-12805
ology	-12806
yonza	-12807
▁izoo	-12808
▁lung	-12809
Kizito	-12810
byutsa	-12811
ctives	-12812
mphony	-12813
▁Brian	-12814
▁Simba	-12815
▁alibi	-12816
▁anita	-12817
▁hills	-12818
▁ikaze	-12819
▁ituro	-12820
▁mvuge	-12821
▁ngari	-12822
▁pills	-12823
▁ugute	-12824
▁uhura	-12825
▁ukaba	-12826
▁ukoze	-12827
▁umuga	-12828
▁umuto	-12829
▁umuzu	-12830
▁umwir	-12831
▁uncle	-12832
▁urasa	-12833
▁urban	-12834
▁ureba	-12835
▁urugi	-12836
▁usaba	-12837
▁useka	-12838
▁utaba	-12839
▁uture	-12840
▁uwabi	-12841
▁uwari	-12842
▁uwawe	-12843
▁uzane	-12844
▁uziko	-12845
▁viola	-12846
▁vowed	-12847
▁wages	-12848
▁wajya	-12849
▁wandi	-12850
▁wanyu	-12851
▁waves	-12852
▁yakwi	-12853
▁yampa	-12854
▁yaryo	-12855
▁yibye	-12856
▁yingu	-12857
▁zange	-12858
▁zanyu	-12859
▁zibyo	-12860
▁zouke	-12861
Inshuti	-12862
Loneome	-12863
Luckily	-12864
Nabonye	-12865
Ntugire	-12866
Nyamara	-12867
abasore	-12868
amafoto	-12869
amakuru	-12870
bakunda	-12871
buretor	-12872
butumwa	-12873
bwibone	-12874
byifuza	-12875
byizera	-12876
cretary	-12877
cyakora	-12878
derland	-12879
dutanga	-12880
enetian	-12881
entific	-12882
entiful	-12883
factory	-12884
ference	-12885
gangari	-12886
ganyega	-12887
gorized	-12888
gufunga	-12889
gurirwa	-12890
gurutse	-12891
hangaha	-12892
hangane	-12893
hanirwa	-12894
hengeri	-12895
hikamye	-12896
hinduwe	-12897
hington	-12898
hungiro	-12899
Most	-12900
Turi	-12901
abra	-12902
mney	-12903
tney	-12904
mpion	-12905
torwa	-12906
vunge	-12907
▁Near	-12908
▁Sume	-12909
▁Teri	-12910
▁yamw	-12911
manswa	-12912
mpinga	-12913
rokoka	-12914
sohoka	-12915
sohoye	-12916
▁Nelly	-12917
▁Teach	-12918
▁click	-12919
▁ishyu	-12920
▁jyana	-12921
▁kelia	-12922
▁kucyi	-12923
▁ntani	-12924
▁nyamw	-12925
▁ryubu	-12926
▁utize	-12927
▁walks	-12928
Ruganzu	-12929
Tugomba	-12930
abraham	-12931
ibihaha	-12932
ibitaro	-12933
icyenda	-12934
igihugu	-12935
imodoka	-12936
ingenzi	-12937
isation	-12938
ishyize	-12939
ishyuwe	-12940
isiteri	-12941
isobanu	-12942
isohora	-12943
kangura	-12944
kanisha	-12945
kemurwa	-12946
keretse	-12947
kigenda	-12948
kinguka	-12949
kinjiro	-12950
kunyura	-12951
kwereka	-12952
langelo	-12953
liation	-12954
luctant	-12955
managed	-12956
manitse	-12957
manutse	-12958
mbabaje	-12959
mbabaza	-12960
mingham	-12961
mpeshyi	-12962
mugisha	-12963
mwemera	-12964
mwizera	-12965
myitozo	-12966
obanura	-12967
ontable	-12968
otional	-12969
pendent	-12970
pimisha	-12971
ppiness	-12972
quitoes	-12973
rangabo	-12974
rangize	-12975
rection	-12976
rengaho	-12977
rengeje	-12978
riganya	-12979
rimbire	-12980
rophies	-12981
rounded	-12982
ruction	-12983
ruganda	-12984
rugendo	-12985
sations	-12986
shoferi	-12987
sinzira	-12988
sperson	-12989
subikwa	-12990
tandatu	-12991
tangaye	-12992
tenguha	-12993
terized	-12994
testers	-12995
tubwira	-12996
tunguye	-12997
turinda	-12998
uburezi	-12999
Nzako	-13000
apons	-13001
harry	-13002
itamo	-13003
kongi	-13004
laska	-13005
setts	-13006
▁Call	-13007
▁calm	-13008
▁gods	-13009
imvura	-13010
mpagne	-13011
sified	-13012
▁Menya	-13013
▁Messi	-13014
▁Rocky	-13015
▁Sandy	-13016
▁atlas	-13017
▁culti	-13018
▁obese	-13019
▁orche	-13020
amavuko	-13021
anayeri	-13022
bushake	-13023
gerwaho	-13024
hizuoka	-13025
ubukode	-13026
umubare	-13027
umubiri	-13028
umugome	-13029
umukara	-13030
urwanda	-13031
wandiko	-13032
wanyuze	-13033
yanzuro	-13034
yisenga	-13035
yongeye	-13036
yugunyu	-13037
yungura	-13038
zamurwa	-13039
zandiko	-13040
zanyura	-13041
▁Abandi	-13042
▁Agomba	-13043
▁Ahantu	-13044
▁Akunda	-13045
▁Alaska	-13046
▁Antiyo	-13047
▁August	-13048
▁Avenue	-13049
▁Bagege	-13050
▁Bavuze	-13051
▁Bayley	-13052
▁Bishop	-13053
▁Bitewe	-13054
▁Buying	-13055
▁Bweran	-13056
▁Caesar	-13057
▁Church	-13058
▁Costco	-13059
▁Cyenge	-13060
▁Dwight	-13061
▁Experi	-13062
▁Gaciro	-13063
▁Habaye	-13064
▁Hazaba	-13065
▁Hejuru	-13066
▁Hitamo	-13067
▁Ibanga	-13068
▁Ibindi	-13069
▁Ibiryo	-13070
▁Ikindi	-13071
▁Imyaka	-13072
▁Inanna	-13073
▁Inkuru	-13074
▁Interi	-13075
▁Inyama	-13076
▁Jensen	-13077
▁Jewish	-13078
▁Joseph	-13079
▁Kaliza	-13080
▁Kamara	-13081
▁Kevine	-13082
▁Kibeho	-13083
▁Kimura	-13084
▁Kirezi	-13085
▁Kugura	-13086
▁Listen	-13087
▁Magera	-13088
▁Malawi	-13089
▁Marina	-13090
▁Mfasha	-13091
▁Monroe	-13092
▁Mukaba	-13093
▁Mumeze	-13094
▁Mutara	-13095
▁Mutoni	-13096
▁Nakura	-13097
▁Nemera	-13098
▁Ngenda	-13099
000	-13100
Emet	-13101
feso	-13102
ahani	-13103
zines	-13104
▁Gala	-13105
▁Ijwi	-13106
▁Lady	-13107
▁Lucy	-13108
▁Luke	-13109
▁kala	-13110
Umwana	-13111
ctares	-13112
rwenya	-13113
suzume	-13114
▁Bwami	-13115
▁Efeso	-13116
▁Eisen	-13117
▁Enock	-13118
▁Frank	-13119
▁charm	-13120
▁coins	-13121
Keretse	-13122
anyijwe	-13123
fatanye	-13124
tegurwa	-13125
▁Cherry	-13126
▁Kubaka	-13127
▁Nirere	-13128
▁Nizeye	-13129
▁Nsinda	-13130
▁Pascal	-13131
▁Prison	-13132
▁Public	-13133
▁Remezo	-13134
▁Rugara	-13135
▁Rukoma	-13136
▁Russia	-13137
▁Sawuli	-13138
▁Sharon	-13139
▁Sirasi	-13140
▁Steven	-13141
▁Thomas	-13142
▁Tomasi	-13143
▁Tugiye	-13144
▁Turimo	-13145
▁Uganda	-13146
▁Umutwe	-13147
▁Urumva	-13148
▁Urwego	-13149
▁Ushaka	-13150
▁Wareka	-13151
▁Yagize	-13152
▁Yerusa	-13153
▁Yizeye	-13154
▁abashe	-13155
▁abwiye	-13156
▁agende	-13157
▁ahabwe	-13158
▁ahamya	-13159
▁ahinda	-13160
▁ahunga	-13161
▁akajya	-13162
▁akunze	-13163
▁akwiye	-13164
▁allows	-13165
▁amabyi	-13166
▁amazed	-13167
▁angire	-13168
▁aranyi	-13169
▁arrest	-13170
▁ashize	-13171
▁atinda	-13172
▁atunze	-13173
▁azajya	-13174
▁babaho	-13175
▁babeho	-13176
▁babiba	-13177
▁bagire	-13178
▁bahise	-13179
▁bahita	-13180
▁bakaba	-13181
▁bakozi	-13182
▁bakuye	-13183
▁bamuzi	-13184
▁banywa	-13185
▁bariye	-13186
▁barred	-13187
▁basing	-13188
▁batabi	-13189
▁batara	-13190
▁bavuye	-13191
▁bazava	-13192
▁beaaha	-13193
▁behalf	-13194
▁beware	-13195
▁bifuza	-13196
▁bigana	-13197
▁bihari	-13198
▁birasa	-13199
Kate	-13200
▁Fif	-13201
▁jet	-13202
Until	-13203
somyi	-13204
sorwa	-13205
yunge	-13206
wiches	-13207
▁Arabi	-13208
▁Autho	-13209
▁Haram	-13210
▁jokes	-13211
▁rings	-13212
▁rumor	-13213
▁seeks	-13214
Ikirere	-13215
Nothing	-13216
byibuha	-13217
byibuho	-13218
engesho	-13219
holandi	-13220
irihose	-13221
parable	-13222
▁Nathan	-13223
▁Rugagi	-13224
▁biraso	-13225
▁bitaro	-13226
▁bitoki	-13227
▁biyaga	-13228
▁bizagu	-13229
▁blamed	-13230
▁bother	-13231
▁breast	-13232
▁breath	-13233
▁bribes	-13234
▁brings	-13235
▁bugabo	-13236
▁bugira	-13237
▁bugoye	-13238
▁buhari	-13239
▁burimo	-13240
▁buruse	-13241
▁butter	-13242
▁bwanyu	-13243
▁byanyu	-13244
▁calves	-13245
▁carpet	-13246
▁cattle	-13247
▁cement	-13248
▁chains	-13249
▁cheque	-13250
▁claims	-13251
▁closet	-13252
▁cyashi	-13253
▁deeply	-13254
▁denies	-13255
▁deodor	-13256
▁derick	-13257
▁dollar	-13258
▁doubts	-13259
▁douche	-13260
▁drinks	-13261
▁duhura	-13262
▁elisha	-13263
▁enters	-13264
▁expert	-13265
▁fallen	-13266
▁feared	-13267
▁fellow	-13268
▁fields	-13269
▁fights	-13270
▁flower	-13271
▁flying	-13272
▁forced	-13273
▁fridge	-13274
▁giceri	-13275
▁gikora	-13276
▁gloria	-13277
▁grades	-13278
▁growth	-13279
▁guhita	-13280
▁guided	-13281
▁gutura	-13282
▁habaga	-13283
▁habane	-13284
▁habits	-13285
▁harass	-13286
▁headed	-13287
▁hiding	-13288
▁higher	-13289
▁hizewe	-13290
▁honore	-13291
▁horses	-13292
▁humans	-13293
▁ibyuya	-13294
▁ihunga	-13295
▁ijyana	-13296
▁ikunda	-13297
▁ikwira	-13298
▁ikwiye	-13299
Will	-13300
mails	-13301
▁Bots	-13302
▁Ephe	-13303
▁Orne	-13304
▁epfo	-13305
achers	-13306
ciyemo	-13307
warded	-13308
▁Apple	-13309
▁Banks	-13310
▁Kyoko	-13311
▁Parce	-13312
▁anode	-13313
▁kanzu	-13314
▁nyoko	-13315
▁repay	-13316
▁riots	-13317
▁shark	-13318
gentina	-13319
gentine	-13320
hyizeho	-13321
putated	-13322
▁beaten	-13323
▁entire	-13324
▁heroes	-13325
▁imbaga	-13326
▁induru	-13327
▁inkovu	-13328
▁inkuge	-13329
▁insist	-13330
▁intare	-13331
▁inyana	-13332
▁inzovu	-13333
▁iphone	-13334
▁ishira	-13335
▁iwanyu	-13336
▁joking	-13337
▁kabati	-13338
▁kabuza	-13339
▁karimo	-13340
▁karisa	-13341
▁kaseti	-13342
▁kikaba	-13343
▁korana	-13344
▁kubaba	-13345
▁kubara	-13346
▁kugama	-13347
▁kumuha	-13348
▁kurera	-13349
▁kuribi	-13350
▁kurota	-13351
▁kuzuye	-13352
▁learns	-13353
▁libera	-13354
▁lifuti	-13355
▁litera	-13356
▁logari	-13357
▁mafoto	-13358
▁maguru	-13359
▁mahura	-13360
▁makuza	-13361
▁manure	-13362
▁marana	-13363
▁maraso	-13364
▁mariko	-13365
▁marume	-13366
▁masaha	-13367
▁mateka	-13368
▁matike	-13369
▁mature	-13370
▁mental	-13371
▁monday	-13372
▁mpanga	-13373
▁mpinga	-13374
▁mubice	-13375
▁mubiri	-13376
▁mubiro	-13377
▁mugati	-13378
▁muhuye	-13379
▁mukore	-13380
▁mumezi	-13381
▁mupira	-13382
▁murebe	-13383
▁murima	-13384
▁murino	-13385
▁murisa	-13386
▁mushya	-13387
▁mutari	-13388
▁mutima	-13389
▁muvuga	-13390
▁nabura	-13391
▁naguha	-13392
▁nakore	-13393
▁namaze	-13394
▁nanone	-13395
▁ndwaye	-13396
▁ndyama	-13397
▁newspa	-13398
▁nibibi	-13399
▁Liz	-13400
byumve	-13401
nicate	-13402
njyewe	-13403
preted	-13404
▁Ivani	-13405
▁Worth	-13406
▁azoga	-13407
▁mpeta	-13408
byiniro	-13409
▁Govern	-13410
▁Masisi	-13411
▁Master	-13412
▁anthen	-13413
▁arenze	-13414
▁azanye	-13415
▁ifashe	-13416
▁ingano	-13417
▁kibaya	-13418
▁loudly	-13419
▁nibiri	-13420
▁nigihe	-13421
▁ninjye	-13422
▁niruka	-13423
▁nkibya	-13424
▁nkimwe	-13425
▁nkombe	-13426
▁nshuro	-13427
▁nsinga	-13428
▁ntabyo	-13429
▁ntarya	-13430
▁ntutin	-13431
▁nubusa	-13432
▁numero	-13433
▁nutaza	-13434
▁nuwuhe	-13435
▁nyabyo	-13436
▁oldest	-13437
▁pariki	-13438
▁parted	-13439
▁phrase	-13440
▁physic	-13441
▁pieces	-13442
▁placed	-13443
▁plates	-13444
▁plenty	-13445
▁prayer	-13446
▁racial	-13447
▁raggae	-13448
▁rained	-13449
▁recipe	-13450
▁reject	-13451
▁remain	-13452
▁repent	-13453
▁resept	-13454
▁resist	-13455
▁resort	-13456
▁resume	-13457
▁riding	-13458
▁rivuga	-13459
▁rugana	-13460
▁rugiye	-13461
▁ruhame	-13462
▁ruined	-13463
▁rukara	-13464
▁rumuri	-13465
▁rusizi	-13466
▁rutugu	-13467
▁ruziga	-13468
▁ryanyu	-13469
▁ryibyo	-13470
▁sahani	-13471
▁salmon	-13472
▁sandra	-13473
▁satani	-13474
▁seated	-13475
▁sector	-13476
▁sekibi	-13477
▁sekuru	-13478
▁series	-13479
▁served	-13480
▁serves	-13481
▁shaken	-13482
▁shakes	-13483
▁shares	-13484
▁sharon	-13485
▁signed	-13486
▁sinaba	-13487
▁sirasi	-13488
▁social	-13489
▁somero	-13490
▁sosiye	-13491
▁spices	-13492
▁starve	-13493
▁stated	-13494
▁statue	-13495
▁strike	-13496
▁strive	-13497
▁studio	-13498
▁suffer	-13499
▁35	-13500
gnace	-13501
gonze	-13502
▁Emmy	-13503
▁Fata	-13504
▁Feli	-13505
▁Tony	-13506
▁Zana	-13507
▁emmi	-13508
▁flee	-13509
▁karp	-13510
▁maln	-13511
▁wrap	-13512
baniye	-13513
ibyaha	-13514
manika	-13515
regard	-13516
yerezo	-13517
▁Amasa	-13518
▁Carol	-13519
▁Ganza	-13520
▁Terry	-13521
▁cedan	-13522
▁favor	-13523
▁ngewe	-13524
▁testi	-13525
hingiye	-13526
hyizemo	-13527
rwanaho	-13528
vunitse	-13529
▁Donata	-13530
▁Ignace	-13531
▁Poetry	-13532
▁Street	-13533
▁atyaye	-13534
▁begged	-13535
▁gasozi	-13536
▁gender	-13537
▁global	-13538
▁gupima	-13539
▁karoti	-13540
▁mukaga	-13541
▁ruling	-13542
▁rushed	-13543
▁snakes	-13544
▁sunday	-13545
▁swater	-13546
▁talent	-13547
▁taller	-13548
▁taziko	-13549
▁tender	-13550
▁threat	-13551
▁timely	-13552
▁toilet	-13553
▁torero	-13554
▁transi	-13555
▁treasu	-13556
▁trials	-13557
▁tubeho	-13558
▁tubiri	-13559
▁tubone	-13560
▁tugira	-13561
▁tukiri	-13562
▁tumeze	-13563
▁tutaba	-13564
▁tuzaba	-13565
▁twumvi	-13566
▁ubuswa	-13567
▁ubwacu	-13568
▁ubwawe	-13569
▁uganda	-13570
▁ugende	-13571
▁ugirwa	-13572
▁umpaye	-13573
▁umucyo	-13574
▁umurwa	-13575
▁untill	-13576
▁unyura	-13577
▁uryoha	-13578
▁ushaje	-13579
▁usunye	-13580
▁utinda	-13581
▁uzajya	-13582
▁verbal	-13583
▁verses	-13584
▁vision	-13585
▁voices	-13586
▁wabaga	-13587
▁wabaye	-13588
▁wabaza	-13589
▁wakazi	-13590
▁washed	-13591
▁wibaza	-13592
▁wishes	-13593
▁within	-13594
▁wooden	-13595
▁writes	-13596
▁yabaye	-13597
▁yageze	-13598
▁yakazi	-13599
ahua	-13600
▁URL	-13601
▁dyn	-13602
secut	-13603
▁Ethi	-13604
▁Thai	-13605
huahua	-13606
valisi	-13607
yimoni	-13608
▁Diane	-13609
▁Ignes	-13610
▁chaos	-13611
▁mbuto	-13612
▁nizoo	-13613
▁piece	-13614
▁virus	-13615
arafati	-13616
bendera	-13617
bwenjye	-13618
cellent	-13619
ginated	-13620
hutisha	-13621
portion	-13622
▁Albert	-13623
▁Elisha	-13624
▁Excell	-13625
▁candle	-13626
▁displa	-13627
▁itantu	-13628
▁relief	-13629
▁shines	-13630
▁virusi	-13631
▁yakome	-13632
▁yaraye	-13633
▁yariri	-13634
▁yariye	-13635
▁yataha	-13636
▁yeguye	-13637
▁yigihe	-13638
▁yigiti	-13639
▁yinama	-13640
▁yireba	-13641
▁yitaye	-13642
▁yizera	-13643
▁yohana	-13644
▁yuruzi	-13645
▁zagiye	-13646
▁zamura	-13647
▁zateye	-13648
▁zibaho	-13649
▁zigera	-13650
▁zitari	-13651
▁ziteza	-13652
▁zuzuye	-13653
Ibikorwa	-13654
Kuberako	-13655
Ntashaka	-13656
Ntushaka	-13657
amahirwe	-13658
andikiwe	-13659
andikiye	-13660
babarire	-13661
bahirije	-13662
beshyeye	-13663
binginga	-13664
bishyize	-13665
chnologi	-13666
chusetts	-13667
ctations	-13668
essories	-13669
fashisha	-13670
fatanije	-13671
ferences	-13672
fungurwa	-13673
garagaro	-13674
garukira	-13675
gererayo	-13676
gikeneye	-13677
gusubiza	-13678
hamagaro	-13679
hamagawe	-13680
hanagura	-13681
hohotewe	-13682
hyantare	-13683
injangwe	-13684
kemurira	-13685
kiranuka	-13686
kohereza	-13687
kuberiki	-13688
kubiyemo	-13689
kuriyemo	-13690
kwambara	-13691
lerating	-13692
mamazaga	-13693
mashusho	-13694
migabane	-13695
nabataka	-13696
ramubiri	-13697
sabagina	-13698
sezerana	-13699
koroni	-13700
monies	-13701
▁Drake	-13702
▁Egypt	-13703
▁arota	-13704
▁flies	-13705
▁frequ	-13706
▁imesa	-13707
▁ireme	-13708
▁logic	-13709
▁pisto	-13710
Nibutse	-13711
kinjire	-13712
▁Impano	-13713
▁Karake	-13714
▁Martha	-13715
▁Sandra	-13716
▁Wouldn	-13717
▁andika	-13718
▁circle	-13719
▁evange	-13720
▁invade	-13721
▁nshaje	-13722
▁olivie	-13723
▁pisine	-13724
▁posted	-13725
Shyerezo	-13726
Urashaka	-13727
politike	-13728
shyizeho	-13729
sohokana	-13730
suzuguro	-13731
tabarika	-13732
tangajwe	-13733
tegereze	-13734
tegetswe	-13735
teguriye	-13736
tificate	-13737
tinguish	-13738
tugirira	-13739
tumanaho	-13740
ubukungu	-13741
umuhanda	-13742
umutungo	-13743
ushobora	-13744
vanganzo	-13745
vuganaga	-13746
zamakuru	-13747
zobereye	-13748
▁Abagore	-13749
▁Abakozi	-13750
▁Akomeza	-13751
▁Angeles	-13752
▁Aniceti	-13753
▁Belgian	-13754
▁Binyuze	-13755
▁Bitwara	-13756
▁Bologna	-13757
▁Britain	-13758
▁Buhinde	-13759
▁Byabaye	-13760
▁CYILIMA	-13761
▁Cattier	-13762
▁Chicago	-13763
▁Develop	-13764
▁Doctors	-13765
▁Egiputa	-13766
▁Elitien	-13767
▁Gatsibo	-13768
▁Getting	-13769
▁Gicumbi	-13770
▁Gihunya	-13771
▁Grendel	-13772
▁Gukunda	-13773
▁Gutanga	-13774
▁Igisabo	-13775
▁Igitabo	-13776
▁Ikidage	-13777
▁Ikinani	-13778
▁Ikiraro	-13779
▁Ikirere	-13780
▁Imibare	-13781
▁Instead	-13782
▁Ishyira	-13783
▁Itegeko	-13784
▁Jakarta	-13785
▁Journal	-13786
▁Kamille	-13787
▁Kampire	-13788
▁Keretse	-13789
▁Kingdom	-13790
▁Kinyaga	-13791
▁Koresha	-13792
▁Luckily	-13793
▁Marilyn	-13794
▁Martine	-13795
▁Micheal	-13796
▁Mirenge	-13797
▁Mubyara	-13798
▁Muganza	-13799
Yoo	-13800
ABIS	-13801
Jack	-13802
burg	-13803
offs	-13804
▁...	-13805
▁10%	-13806
Nelly	-13807
eemer	-13808
vette	-13809
zania	-13810
▁weak	-13811
chance	-13812
chases	-13813
humeka	-13814
olivie	-13815
▁Clari	-13816
▁Erega	-13817
▁Gabri	-13818
▁Judea	-13819
▁Mbese	-13820
▁North	-13821
▁begun	-13822
▁darcy	-13823
▁empty	-13824
▁ferti	-13825
▁knock	-13826
▁plead	-13827
▁suffi	-13828
ABISHIN	-13829
zongere	-13830
▁Marley	-13831
▁Mukand	-13832
▁Reduce	-13833
▁Rubavu	-13834
▁Yakobo	-13835
▁annual	-13836
▁bihaza	-13837
▁fisher	-13838
▁imenye	-13839
▁imitsi	-13840
▁kalima	-13841
▁mashya	-13842
▁poison	-13843
▁racket	-13844
▁reader	-13845
▁yahemu	-13846
Wherever	-13847
orescent	-13848
▁Luciano	-13849
▁Muhanga	-13850
▁Mutwara	-13851
▁Nabantu	-13852
▁Nabwiwe	-13853
▁Nakunze	-13854
▁Ndahuze	-13855
▁Ndibuka	-13856
▁Neretse	-13857
▁Nkukuri	-13858
▁Nkuramo	-13859
▁Nsibura	-13860
▁Ntiyari	-13861
▁Ntugere	-13862
▁Ntukave	-13863
▁Ntukite	-13864
▁Ntukure	-13865
▁Ntuzaze	-13866
▁Nzabaza	-13867
▁Nzabona	-13868
▁Nzareba	-13869
▁Okinawa	-13870
▁Patrick	-13871
▁Prevent	-13872
▁Rondora	-13873
▁Rubingo	-13874
▁Ruganda	-13875
▁Ruhango	-13876
▁Rusange	-13877
▁Sagatwa	-13878
▁Schools	-13879
▁Toshima	-13880
▁Twakoze	-13881
▁Uburezi	-13882
▁Ubuzima	-13883
▁Umukino	-13884
▁Umuriro	-13885
▁Uravuga	-13886
▁Ururimi	-13887
▁Uwimana	-13888
▁Wabwiye	-13889
▁Watumye	-13890
▁William	-13891
▁Without	-13892
▁Yabonye	-13893
▁Yampaye	-13894
▁Yaretse	-13895
▁Yasabye	-13896
▁abafana	-13897
▁abajura	-13898
▁abakene	-13899
▁Silas	-13900
▁wacth	-13901
Whether	-13902
bumbiye	-13903
cyangwa	-13904
elected	-13905
▁antibi	-13906
▁castro	-13907
▁gabiro	-13908
▁gentle	-13909
▁monica	-13910
▁ubyita	-13911
▁wheels	-13912
herlands	-13913
mocratic	-13914
▁Chances	-13915
▁Migongo	-13916
▁Nyiraru	-13917
▁abakire	-13918
▁abatuye	-13919
▁abazimu	-13920
▁abeshya	-13921
▁abivuga	-13922
▁adakora	-13923
▁adakoze	-13924
▁adjourn	-13925
▁advices	-13926
▁agakiza	-13927
▁agakora	-13928
▁agapira	-13929
▁agirira	-13930
▁aguruka	-13931
▁akayabo	-13932
▁akimara	-13933
▁akundwa	-13934
▁amacupa	-13935
▁amadini	-13936
▁amagara	-13937
▁amagufa	-13938
▁amanywa	-13939
▁amashyi	-13940
▁amatara	-13941
▁amatora	-13942
▁amayeri	-13943
▁ananiwe	-13944
▁anxious	-13945
▁appears	-13946
▁arakara	-13947
▁arakora	-13948
▁aravuga	-13949
▁arinzwe	-13950
▁ashinja	-13951
▁asohoka	-13952
▁atabizi	-13953
▁atakaza	-13954
▁atanywa	-13955
▁atazaza	-13956
▁atukura	-13957
▁awesome	-13958
▁ayobora	-13959
▁azabaho	-13960
▁azavuga	-13961
▁azicuza	-13962
▁babanye	-13963
▁bahanga	-13964
▁bahindu	-13965
▁basanze	-13966
▁batanze	-13967
▁batinya	-13968
▁batinze	-13969
▁beliefs	-13970
▁beloved	-13971
▁bendera	-13972
▁bifasha	-13973
▁bifatwa	-13974
▁bigisha	-13975
▁bihenze	-13976
▁billion	-13977
▁bimbaho	-13978
▁bishize	-13979
▁bonyine	-13980
▁bufasha	-13981
▁buganza	-13982
▁bugingo	-13983
▁bugomba	-13984
▁buhanga	-13985
▁bullets	-13986
▁bungana	-13987
▁byabaho	-13988
▁byabana	-13989
▁byagiye	-13990
▁byaramu	-13991
▁byasaba	-13992
▁byashyi	-13993
▁byatera	-13994
▁byemewe	-13995
▁byemezo	-13996
▁byiciro	-13997
▁byihuti	-13998
▁captain	-13999
coln	-14000
yPal	-14001
▁ABC	-14002
▁BMW	-14003
▁MHC	-14004
▁Mtn	-14005
0615)	-14006
Roger	-14007
biote	-14008
lwell	-14009
obahn	-14010
▁AIDS	-14011
▁Bolt	-14012
▁Medi	-14013
▁Tayi	-14014
▁True	-14015
▁grub	-14016
▁occu	-14017
▁sorg	-14018
Pamela	-14019
ngibyo	-14020
nomiya	-14021
radona	-14022
school	-14023
▁1864,	-14024
▁Cyril	-14025
▁Jaume	-14026
▁Susie	-14027
▁Tango	-14028
▁apart	-14029
▁deeds	-14030
▁degre	-14031
▁weird	-14032
Ambulan	-14033
Nkimara	-14034
Uldumva	-14035
written	-14036
▁Follow	-14037
▁Jackie	-14038
▁Komite	-14039
▁Mpinda	-14040
▁PayPal	-14041
▁Raporo	-14042
▁jeanne	-14043
▁kunoza	-14044
▁Antioch	-14045
▁Lincoln	-14046
▁Uwineza	-14047
▁ambassa	-14048
▁carried	-14049
▁carrier	-14050
▁causing	-14051
▁cedrick	-14052
▁channel	-14053
▁cheaper	-14054
▁checked	-14055
▁chimney	-14056
▁classes	-14057
▁cleaned	-14058
▁clement	-14059
▁climate	-14060
▁command	-14061
▁conduct	-14062
▁consist	-14063
▁constru	-14064
▁context	-14065
▁coopera	-14066
▁council	-14067
▁counter	-14068
▁couples	-14069
▁covered	-14070
▁customs	-14071
▁cyemeza	-14072
▁cyigeze	-14073
▁cyikawa	-14074
▁cyinama	-14075
▁cyinshi	-14076
▁cyizere	-14077
▁cyuhira	-14078
▁dancers	-14079
▁dancing	-14080
▁decline	-14081
▁desktop	-14082
▁despise	-14083
▁dessert	-14084
▁destroy	-14085
▁devotha	-14086
▁doctors	-14087
▁doubled	-14088
▁dufashe	-14089
▁dusanga	-14090
▁easiest	-14091
▁elephan	-14092
▁endless	-14093
▁enjoyed	-14094
▁experts	-14095
▁fabrice	-14096
▁farming	-14097
▁focused	-14098
▁follows	-14099
Kaguta	-14100
itwaro	-14101
layono	-14102
▁Draco	-14103
▁Grace	-14104
▁Omega	-14105
▁Rutwi	-14106
▁Rwoga	-14107
▁South	-14108
▁Thurs	-14109
▁Witon	-14110
▁bruno	-14111
▁ihene	-14112
▁irene	-14113
▁vodka	-14114
Forgive	-14115
andekwe	-14116
bilansi	-14117
givable	-14118
inagogi	-14119
kibungo	-14120
sically	-14121
▁Ahubwo	-14122
▁Butati	-14123
▁Choose	-14124
▁Claire	-14125
▁Daneme	-14126
▁Dorcas	-14127
▁Hadula	-14128
▁Hilton	-14129
▁Kasuku	-14130
▁Kirehe	-14131
▁Mehida	-14132
▁Mutesi	-14133
▁Mwebwe	-14134
▁Nevada	-14135
▁Yudaya	-14136
▁afatwa	-14137
▁arsene	-14138
▁clutch	-14139
▁ethnic	-14140
▁fables	-14141
▁gucana	-14142
▁gukata	-14143
▁muhizi	-14144
▁pagans	-14145
▁rigena	-14146
▁rocker	-14147
▁yimari	-14148
dagaduro	-14149
▁Adeline	-14150
▁British	-14151
▁Elayono	-14152
▁Godfrey	-14153
▁Ishyaka	-14154
▁Matyazo	-14155
▁Records	-14156
▁Rwigema	-14157
▁Theogen	-14158
▁Tortuga	-14159
▁cathode	-14160
▁desires	-14161
▁excuses	-14162
▁freedom	-14163
▁funguro	-14164
▁further	-14165
▁gahinda	-14166
▁gaining	-14167
▁garbage	-14168
▁gashuhe	-14169
▁gatsiri	-14170
▁gikwiye	-14171
▁gishaje	-14172
▁gitanda	-14173
▁gityaye	-14174
▁glasses	-14175
▁glorify	-14176
▁greatly	-14177
▁greeted	-14178
▁guarded	-14179
▁gucibwa	-14180
▁gufunga	-14181
▁guhinga	-14182
▁gusabwa	-14183
▁gusinya	-14184
▁gutunga	-14185
▁gutwika	-14186
▁hanging	-14187
▁hatchet	-14188
▁hazagwa	-14189
▁healing	-14190
▁herself	-14191
▁hitting	-14192
▁holding	-14193
▁honesty	-14194
▁hunting	-14195
▁ibabaje	-14196
▁ibereye	-14197
▁ibiceri	-14198
▁ibihano	-14199
▁Tyler	-14200
▁Yunai	-14201
ganisms	-14202
unkwere	-14203
yeshuli	-14204
▁Family	-14205
▁Filime	-14206
▁Guzman	-14207
▁Hailey	-14208
▁Hawaii	-14209
▁Komeza	-14210
▁Nelcon	-14211
▁Porofe	-14212
▁Sydney	-14213
▁Things	-14214
▁Wahaye	-14215
▁genius	-14216
▁joshua	-14217
▁pretty	-14218
▁psycho	-14219
▁synony	-14220
▁wander	-14221
tandukan	-14222
▁Bufende	-14223
▁Bumbogo	-14224
▁Charles	-14225
▁Damaged	-14226
▁Delbert	-14227
▁Finnish	-14228
▁Grannie	-14229
▁Juvenal	-14230
▁Kanimba	-14231
▁Mexique	-14232
▁Through	-14233
▁acquain	-14234
▁beijing	-14235
▁brendah	-14236
▁derived	-14237
▁diamond	-14238
▁ibinini	-14239
▁ibirego	-14240
▁ibitero	-14241
▁ibiyaga	-14242
▁ibiziga	-14243
▁igifini	-14244
▁igitero	-14245
▁igumane	-14246
▁ihagije	-14247
▁iheruka	-14248
▁ikeneye	-14249
▁ikibuga	-14250
▁ikirego	-14251
▁ikiyaga	-14252
▁ikunzwe	-14253
▁imigani	-14254
▁imisoro	-14255
▁imitako	-14256
▁imivugo	-14257
▁impunzi	-14258
▁imyanda	-14259
▁infront	-14260
▁ingengo	-14261
▁insults	-14262
▁interfe	-14263
▁intwaro	-14264
▁iposita	-14265
▁isekeje	-14266
▁isigaye	-14267
▁isukari	-14268
▁itakaza	-14269
▁itariki	-14270
▁itigeze	-14271
▁iturika	-14272
▁iwanjye	-14273
▁iyanjye	-14274
▁izakora	-14275
▁izavuga	-14276
▁izigera	-14277
▁kakozwe	-14278
▁kalinga	-14279
▁kalisai	-14280
▁kamonyi	-14281
▁karamba	-14282
▁kigomba	-14283
▁killing	-14284
▁kimbuza	-14285
▁kiremwa	-14286
▁kissing	-14287
▁kitchen	-14288
▁kogosha	-14289
▁kubasha	-14290
▁kubintu	-14291
▁kubwawe	-14292
▁kubyuka	-14293
▁kugaban	-14294
▁kugisha	-14295
▁kugurwa	-14296
▁kumfata	-14297
▁kunsaba	-14298
▁kuntera	-14299
pticism	-14300
▁Azineza	-14301
▁Kanumba	-14302
▁Kayonza	-14303
▁Suzanne	-14304
▁Whitney	-14305
▁YouTube	-14306
▁ayobore	-14307
▁igaraje	-14308
▁illegal	-14309
▁kutumva	-14310
▁kuyirya	-14311
▁kwegura	-14312
▁kwibaza	-14313
▁kwicuza	-14314
▁kwifuza	-14315
▁kwimuka	-14316
▁kwimura	-14317
▁kwinshi	-14318
▁kwishyi	-14319
▁kwizana	-14320
▁leparan	-14321
▁lessons	-14322
▁listens	-14323
▁lodging	-14324
▁logique	-14325
▁mailbox	-14326
▁manager	-14327
▁mbyumva	-14328
▁medical	-14329
▁monitor	-14330
▁mpagaze	-14331
▁mubukwe	-14332
▁mugambi	-14333
▁muhanzi	-14334
▁munzira	-14335
▁murongo	-14336
▁muscles	-14337
▁mutanga	-14338
▁muvunyi	-14339
▁muyango	-14340
▁mvugana	-14341
▁mvururu	-14342
▁mwijuru	-14343
▁nandika	-14344
▁nangahe	-14345
▁naretse	-14346
▁narindi	-14347
▁nasanze	-14348
▁nations	-14349
▁navutse	-14350
▁ndizera	-14351
▁network	-14352
▁nguriza	-14353
▁nibintu	-14354
▁nicyaha	-14355
▁nijisho	-14356
▁ninjiye	-14357
▁nishuri	-14358
▁nizindi	-14359
▁nkuriya	-14360
▁nongeye	-14361
▁ntabona	-14362
▁ntakoze	-14363
▁ntameze	-14364
▁ntavuga	-14365
▁ntibisi	-14366
▁ntihaka	-14367
▁ntikaba	-14368
▁ntiwari	-14369
▁ntugire	-14370
▁ntukore	-14371
▁ntuzaze	-14372
▁numunya	-14373
▁nyamara	-14374
▁nzagura	-14375
▁nzareba	-14376
▁obeying	-14377
▁ohereza	-14378
▁operate	-14379
▁paisley	-14380
▁patrick	-14381
▁persecu	-14382
▁players	-14383
▁postage	-14384
▁poverty	-14385
▁praying	-14386
▁primary	-14387
▁prophet	-14388
▁quarter	-14389
▁receipt	-14390
▁recover	-14391
▁reduced	-14392
▁reduces	-14393
▁refuses	-14394
▁regrets	-14395
▁related	-14396
▁release	-14397
▁replied	-14398
▁reports	-14399
▁Ephesus	-14400
▁Ornella	-14401
▁revised	-14402
▁rihenze	-14403
▁ringing	-14404
▁rirashe	-14405
▁routine	-14406
▁rubyogo	-14407
▁rugwiza	-14408
▁rumende	-14409
▁rungana	-14410
▁rwaciwe	-14411
▁sakoshi	-14412
▁sanduku	-14413
▁satisfy	-14414
▁seconds	-14415
▁secrets	-14416
▁seeking	-14417
▁serpent	-14418
▁servant	-14419
▁several	-14420
▁shaking	-14421
▁shining	-14422
▁shobora	-14423
▁shocked	-14424
▁shokora	-14425
▁shouted	-14426
▁shyamba	-14427
▁sibling	-14428
▁simbizi	-14429
▁simfite	-14430
▁sorghum	-14431
▁spelled	-14432
▁spirits	-14433
▁staring	-14434
▁storage	-14435
▁stories	-14436
▁studies	-14437
▁subject	-14438
▁sustain	-14439
▁sweater	-14440
▁temples	-14441
▁thanked	-14442
▁thieves	-14443
▁trading	-14444
▁travels	-14445
▁treated	-14446
▁trusted	-14447
▁tugenda	-14448
▁tugende	-14449
▁tuition	-14450
▁tujyiye	-14451
▁tumenya	-14452
▁turmoil	-14453
▁twakora	-14454
▁twarimo	-14455
▁twicare	-14456
▁ubikoze	-14457
▁ubivuze	-14458
▁uburozi	-14459
▁ubururu	-14460
▁ubuvuzi	-14461
▁ubuzira	-14462
▁ubwanwa	-14463
▁ubyumva	-14464
▁udahari	-14465
▁udukoko	-14466
▁ugaruka	-14467
▁uhitamo	-14468
▁ukabije	-14469
▁ukekako	-14470
▁ukiriho	-14471
▁ukomeza	-14472
▁ukorera	-14473
▁ukunzwe	-14474
▁umerewe	-14475
▁umuceri	-14476
▁umudamu	-14477
▁umufana	-14478
▁umufuka	-14479
▁umugozi	-14480
▁umujura	-14481
▁umukara	-14482
▁umukono	-14483
▁umukuru	-14484
▁umumaro	-14485
▁umuraba	-14486
▁umusaza	-14487
▁umusoro	-14488
▁umutavu	-14489
▁umuvugo	-14490
▁umwanzi	-14491
▁unaware	-14492
▁unhappy	-14493
▁urasana	-14494
▁urekuye	-14495
▁uribuka	-14496
▁urubuga	-14497
▁urumogi	-14498
▁urumuri	-14499
▁urunigi	-14500
▁urushyi	-14501
▁usigaye	-14502
▁usuzuma	-14503
▁utabizi	-14504
▁utakoze	-14505
▁utameze	-14506
▁utareba	-14507
▁utitaye	-14508
▁uzagera	-14509
▁uzagira	-14510
▁uzahura	-14511
▁uzigera	-14512
▁vedaste	-14513
▁visible	-14514
▁volcano	-14515
▁wabanza	-14516
▁wabwira	-14517
▁wabwiwe	-14518
▁wafashe	-14519
▁wagenda	-14520
▁wajyaga	-14521
▁wamenye	-14522
▁wasabye	-14523
▁weapons	-14524
▁winjiye	-14525
▁wirinde	-14526
▁worldly	-14527
▁worries	-14528
▁writers	-14529
▁wrongdo	-14530
▁wubahwa	-14531
▁yabanje	-14532
▁yafunze	-14533
▁yagumye	-14534
▁yajyaga	-14535
▁yakunze	-14536
▁yambaba	-14537
▁yambere	-14538
▁yanduye	-14539
▁yanguze	-14540
▁yaryaga	-14541
▁yashaka	-14542
▁yavutse	-14543
▁yicyuzi	-14544
▁yijimye	-14545
▁yimbaho	-14546
▁yinjiza	-14547
▁yishime	-14548
▁yitonda	-14549
▁yitwaje	-14550
▁yongera	-14551
▁yonyine	-14552
▁yubukwe	-14553
▁yukwezi	-14554
▁zakozwe	-14555
▁zatumye	-14556
▁zihishe	-14557
Ababiligi	-14558
Abayapani	-14559
Barcelona	-14560
Christine	-14561
Ibyishimo	-14562
Nashakaga	-14563
Nkurikije	-14564
Ntiyigeze	-14565
Yesterday	-14566
amadolari	-14567
angamuntu	-14568
aranditse	-14569
babarirwa	-14570
bahirizwa	-14571
bishoboye	-14572
cecekeshe	-14573
christian	-14574
cyubahiro	-14575
garagazwa	-14576
geragezwa	-14577
gereranya	-14578
gishirize	-14579
gishobora	-14580
gororotse	-14581
hagarikwa	-14582
hohoterwa	-14583
imibereho	-14584
indirimbo	-14585
ingingira	-14586
kandagiye	-14587
kangurira	-14588
kishimira	-14589
komangoma	-14590
kunyereka	-14591
kwemerera	-14592
menyeshwa	-14593
mvikanaga	-14594
plemented	-14595
portation	-14596
rekeranye	-14597
rengagije	-14598
ringaniye	-14599
sesengura	-14600
sezeranye	-14601
shoboragu	-14602
shyingiwe	-14603
shyinguwe	-14604
twikiriye	-14605
umugaragu	-14606
umugoroba	-14607
yugunyugu	-14608
▁Abahinzi	-14609
▁Abahungu	-14610
▁Africans	-14611
▁Amarenga	-14612
▁Amashuri	-14613
▁American	-14614
▁Autobahn	-14615
▁Banditse	-14616
▁Barnabas	-14617
▁Belgians	-14618
▁Bizimana	-14619
▁Botswana	-14620
▁Byatwaye	-14621
▁Cataloni	-14622
▁Chilwell	-14623
▁Clarinet	-14624
▁Emmanuel	-14625
▁Ethienne	-14626
▁Eveleste	-14627
▁Freetown	-14628
▁Garagaza	-14629
▁Genocide	-14630
▁Guinness	-14631
▁Gushyira	-14632
▁Habimana	-14633
▁Hamagara	-14634
▁Harrison	-14635
▁Himalaya	-14636
▁Honestly	-14637
▁Hrothgar	-14638
▁Ibyavuye	-14639
▁Icyemezo	-14640
▁Indicate	-14641
▁Jenoside	-14642
▁Kabalisa	-14643
▁Kambanda	-14644
▁Kanazawa	-14645
▁Karegeya	-14646
▁Kawasaki	-14647
▁Kayijuka	-14648
▁Kiyapani	-14649
▁Kurikira	-14650
▁Language	-14651
▁Makerere	-14652
▁Maradona	-14653
▁Mibambwe	-14654
▁Monicque	-14655
▁Monopoly	-14656
▁Mucyumba	-14657
▁Mugirire	-14658
▁Murakoze	-14659
▁Nabajije	-14660
▁Nabikoze	-14661
▁Naguhaye	-14662
▁Nahitamo	-14663
▁Nahoraga	-14664
▁Napoleon	-14665
▁Ndambiwe	-14666
▁Ndbagiye	-14667
▁Nemereye	-14668
▁Nibazaga	-14669
▁Nshinzwe	-14670
▁Ntaganda	-14671
▁Ntangiye	-14672
▁Ntucikwe	-14673
▁Ntukajye	-14674
▁Ntuntume	-14675
▁Nyigisha	-14676
▁Nzabisha	-14677
▁Nzagenda	-14678
▁Nzagomba	-14679
▁Nzajyana	-14680
▁Politiki	-14681
▁Priyanka	-14682
▁Province	-14683
▁Redeemer	-14684
▁Rutarati	-14685
▁Rutwitsi	-14686
▁Saruhara	-14687
▁Scotland	-14688
▁Shizuoka	-14689
▁Sinizera	-14690
▁Symphony	-14691
▁Thailand	-14692
▁Turabizi	-14693
▁Turemeza	-14694
▁Tuzaguma	-14695
▁Ubutunzi	-14696
▁Ukwiriye	-14697
▁Umuhungu	-14698
▁Urukundo	-14699
▁Uzasanga	-14700
▁Wabikoze	-14701
▁Wambwiye	-14702
▁Wateguye	-14703
▁Whatever	-14704
▁Yahisemo	-14705
▁Yahoraga	-14706
▁Yakatiwe	-14707
▁Yangijwe	-14708
▁Yerekeje	-14709
▁Yicujije	-14710
▁abahanga	-14711
▁abakunda	-14712
▁abapfuye	-14713
▁abarwayi	-14714
▁abatumva	-14715
▁abigisha	-14716
▁accusers	-14717
▁acoustic	-14718
▁agarutse	-14719
▁agatsiko	-14720
▁agikunda	-14721
▁agukunda	-14722
▁aircraft	-14723
▁akoresha	-14724
▁although	-14725
▁amabanga	-14726
▁amakenga	-14727
▁amashami	-14728
▁amashati	-14729
▁amatungo	-14730
▁amubwira	-14731
▁ananirwa	-14732
▁apparent	-14733
▁aracyari	-14734
▁arafunze	-14735
▁arangije	-14736
▁arangiza	-14737
▁aribyiza	-14738
▁arikumwe	-14739
▁aririmba	-14740
▁articles	-14741
▁asimbuka	-14742
▁assembly	-14743
▁atarenze	-14744
▁attached	-14745
▁atubwira	-14746
▁azagenda	-14747
▁azajyana	-14748
▁azakunda	-14749
▁azasanga	-14750
▁azashaka	-14751
▁badafite	-14752
▁bafitiye	-14753
▁baganira	-14754
▁bahagaze	-14755
▁bahatuye	-14756
▁bahereye	-14757
▁bahisemo	-14758
▁bahuguwe	-14759
▁bakoraga	-14760
▁bananiwe	-14761
▁banditse	-14762
▁baptiste	-14763
▁baravuga	-14764
▁basanzwe	-14765
▁batagira	-14766
▁bayobozi	-14767
▁bazakora	-14768
▁bibiliya	-14769
▁biboneka	-14770
▁bicycles	-14771
▁bidakora	-14772
▁bifuzaga	-14773
▁bigamije	-14774
▁biganiro	-14775
▁bigihugu	-14776
▁bintwaye	-14777
▁birahari	-14778
▁birindwi	-14779
▁bishyira	-14780
▁bitabaho	-14781
▁bitemewe	-14782
▁bizagera	-14783
▁bizageza	-14784
▁bizagira	-14785
▁bizatuma	-14786
▁bracelet	-14787
▁breaking	-14788
▁bubabare	-14789
▁buhagije	-14790
▁bukabije	-14791
▁bukomoka	-14792
▁buragoye	-14793
▁buyobozi	-14794
▁bwamuntu	-14795
▁bwibanze	-14796
▁bwifashe	-14797
▁bwijimye	-14798
▁bwishami	-14799
▁bwubatse	-14800
▁byabandi	-14801
▁byakozwe	-14802
▁byavuzwe	-14803
▁byemejwe	-14804
▁byindege	-14805
▁campaign	-14806
▁capacity	-14807
▁careless	-14808
▁carrying	-14809
▁chemical	-14810
▁cleaning	-14811
▁clothing	-14812
▁cocktail	-14813
▁collapse	-14814
▁colonial	-14815
▁combined	-14816
▁concerns	-14817
▁concerts	-14818
▁confused	-14819
▁consumed	-14820
▁contents	-14821
▁coolness	-14822
▁creation	-14823
▁cyambere	-14824
▁cyindege	-14825
▁cyukuntu	-14826
▁cyumuntu	-14827
▁cyumwaka	-14828
▁darkness	-14829
▁deceived	-14830
▁demanded	-14831
▁directly	-14832
▁disaster	-14833
▁disclose	-14834
▁discount	-14835
▁disikuru	-14836
▁disputes	-14837
▁dogiteri	-14838
▁download	-14839
▁driveway	-14840
▁dukemure	-14841
▁dukorere	-14842
▁dusuzume	-14843
▁dutuyemo	-14844
▁emotions	-14845
▁evenning	-14846
▁expelled	-14847
▁exploded	-14848
▁forgiven	-14849
▁generous	-14850
▁gihembwe	-14851
▁giheruka	-14852
▁gorillas	-14853
▁grandson	-14854
▁guhahira	-14855
▁guhamaga	-14856
▁guhumbya	-14857
▁gukenera	-14858
▁gukoraho	-14859
▁gukosora	-14860
▁gukubita	-14861
▁gusenywa	-14862
▁gusomana	-14863
▁gusunika	-14864
▁gutegura	-14865
▁guterura	-14866
▁gutoteza	-14867
▁gutukana	-14868
▁habanero	-14869
▁hakenewe	-14870
▁hamagara	-14871
▁harabaye	-14872
▁haruguru	-14873
▁hatabaho	-14874
▁hectares	-14875
▁hegitari	-14876
▁humanity	-14877
▁ibiganza	-14878
▁ibihembo	-14879
▁ibikombe	-14880
▁ibiremwa	-14881
▁ibiribwa	-14882
▁ibirungo	-14883
▁ibitutsi	-14884
▁ibyanjye	-14885
▁ibyavuye	-14886
▁ibyinshi	-14887
▁icyanjye	-14888
▁idukunda	-14889
▁igabanya	-14890
▁igihamya	-14891
▁igihombo	-14892
▁ihangane	-14893
▁ikinyoma	-14894
▁ikirombe	-14895
▁ikirundo	-14896
▁ikoresha	-14897
▁imigisha	-14898
▁imihango	-14899
▁imirwano	-14900
▁imperuka	-14901
▁impuruza	-14902
▁imufasha	-14903
▁inshinga	-14904
▁insisted	-14905
▁intended	-14906
▁internet	-14907
▁iragenda	-14908
▁irahenze	-14909
▁isakoshi	-14910
[...]
